<S>
</S>
<UNK>
,
the
.
to
and
of
a
in
"
-
's
for
that
is
on
##
The
with
said
was
at
not
as
it
be
from
by
are
I
have
he
will
)
(
has
####
--
his
an
this
or
their
who
they
but
$
:
had
year
were
'
we
more
###
up
been
you
its
one
about
would
which
out
can
It
all
also
two
after
first
He
do
time
than
when
We
over
last
new
other
her
people
into
In
our
there
A
she
could
just
years
some
U.S.
three
million
them
what
But
so
no
;
like
if
only
percent
get
?
did
him
game
back
because
#.#
now
before
company
any
team
against
off
This
By
through
most
made
make
second
state
well
day
New
season
/
says
down
week
where
while
your
being
government
#-#
home
going
my
good
They
're
should
many
way
those
four
may
during
such
very
how
since
work
take
including
%
high
then
#.##
next
#,###
much
still
old
go
think
even
world
AP
per
see
say
business
five
told
under
1
right
us
these
If
me
And
between
play
market
##,###
help
That
end
know
long
information
does
points
both
part
There
around
police
want
based
've
For
got
third
school
left
another
need
country
2
use
##.#
best
win
quarter
today
public
same
run
Friday
&
set
billion
month
top
3
Tuesday
place
come
Monday
She
city
night
six
each
Thursday
###,###
You
Wednesday
here
group
really
found
As
money
used
United
lot
'm
American
report
...
put
games
program
support
State
half
County
am
family
former
months
number
own
''
officials
man
Saturday
too
better
days
President
!
came
life
lead
pm
##-##
show
past
took
added
expected
called
president
##th
great
services
area
hit
children
system
looking
every
service
big
few
point
early
members
Sunday
start
without
free
companies
York
little
ago
case
local
5
never
according
share
City
sales
news
#:##
until
went
players
financial
4
won
When
##.##
away
South
several
health
John
already
final
On
call
held
industry
'll
With
line
available
students
power
making
Inc.
court
full
plan
North
might
look
least
give
later
forward
At
again
must
major
community
things
open
coach
National
announced
reported
record
law
University
able
working
something
future
meeting
March
far
keep
deal
May
development
All
China
Obama
office
site
find
After
times
security
led
among
June
job
cost
increase
head
whether
change
less
growth
tax
water
seven
States
oil
To
results
lost
6
pay
provide
One
plans
products
hard
include
director
care
car
economic
House
recent
women
World
close
different
across
always
April
important
7
continue
late
within
decision
current
along
played
price
move
enough
national
side
become
loss
level
near
prices
Department
getting
event
Washington
small
board
leading
fourth
shot
Company
So
West
taken
field
goal
real
Center
weeks
center
data
men
asked
party
eight
political
July
started
period
interest
federal
done
behind
technology
minutes
taking
8
project
issue
rate
though
having
scored
likely
strong
series
performance
America
military
Iraq
What
seen
trying
process
coming
management
building
chief
saying
due
School
Police
earlier
believe
St.
statement
given
term
customers
following
others
international
economy
return
News
Bush
thing
killed
further
low
release
However
doing
face
offer
hours
higher
average
control
yet
together
once
Mr.
cent
known
career
9
global
name
received
visit
race
teams
fire
countries
using
experience
ever
playing
possible
round
media
cut
death
total
While
shares
young
member
David
energy
nearly
large
campaign
order
costs
house
why
needs
food
issues
research
His
stock
staff
##-#
player
story
India
senior
victory
war
began
general
sure
Mr
key
morning
thought
conference
person
Minister
No.
gave
feel
history
largest
leader
Street
running
Bank
recently
live
outside
official
course
]
short
[
released
San
wanted
action
meet
online
single
ball
defense
manager
fell
position
fact
problem
Group
front
December
nine
special
International
problems
winning
needed
nation
statements
reports
No
Michael
almost
January
chance
'd
result
investment
September
capital
risk
runs
private
areas
income
yesterday
leaders
Some
comment
Court
ahead
production
workers
comes
match
role
Texas
East
town
study
markets
kind
try
ended
comments
policy
music
executive
election
property
bring
budget
road
makes
vote
often
clear
operations
woman
gas
net
potential
bank
spokesman
trade
non
European
access
saw
Park
whose
value
weekend
hand
These
charges
credit
Cup
increased
California
training
cash
list
##:##
involved
anything
TV
bill
yards
annual
November
compared
contract
Council
High
stop
Now
hope
died
product
fans
schools
White
lower
demand
region
events
rights
club
film
currently
worked
quality
addition
attack
latest
couple
room
opportunity
bad
agreement
range
post
Smith
fall
revenue
jobs
phone
October
let
however
Canada
Our
summer
programs
video
According
Press
An
rose
previous
biggest
football
employees
body
includes
district
changes
residents
means
James
related
League
Florida
class
bit
probably
allowed
states
love
education
sent
child
straight
network
beat
rates
buy
air
hold
turn
medical
groups
soon
finished
foreign
title
especially
wife
Senate
wants
personal
businesses
drug
London
included
safety
Paul
officer
investors
turned
efforts
British
league
August
allow
Association
helped
situation
trading
nothing
|
firm
double
Europe
cents
###-####
additional
spending
General
showed
leave
Jones
February
parents
himself
Johnson
paid
matter
effort
opening
drive
growing
spent
force
book
stay
question
either
Mike
goals
administration
friends
shows
trial
impact
age
England
difficult
e
create
kids
form
son
significant
£
Congress
funds
became
cause
someone
Internet
charged
date
hospital
starting
main
fight
press
operating
agency
similar
success
profit
My
break
focus
mother
conditions
•
Web
continued
everything
provides
talk
software
brought
Israel
pressure
Do
charge
remain
human
pass
ready
decided
track
base
More
arrested
build
terms
rest
closed
expect
despite
whole
provided
Japan
land
lives
forces
step
test
legal
Road
District
ground
projects
cases
organization
Brown
Board
Australia
agreed
pretty
tell
Two
rather
space
amount
everyone
above
officers
authorities
ability
themselves
systems
inside
moved
throughout
store
overall
Mark
Day
county
Chief
Republican
scheduled
``
actually
homes
Commission
fund
father
tournament
patients
Health
giving
social
families
takes
student
investigation
practice
star
UK
attacks
sold
competition
levels
calls
complete
Last
common
hour
committee
Chicago
idea
earnings
reached
tried
foot
reason
sector
named
Pakistan
CEO
stage
debt
nuclear
offers
mail
department
feet
Iran
signed
insurance
certain
evidence
college
Williams
longer
followed
co
Americans
Dr.
sign
black
sale
First
failed
users
anyone
living
search
questions
below
address
reach
receive
quickly
talks
vehicle
required
serious
injury
remains
construction
sell
treatment
George
crisis
view
mobile
light
heart
improve
moving
easy
begin
heard
raised
website
College
content
Associated
s
filed
minute
Corp.
Chris
gets
positive
miles
huge
solutions
Red
Chinese
al
seems
score
####s
met
thousands
Los
chairman
built
offered
read
driving
dollar
hits
Central
present
although
minister
example
Africa
rise
afternoon
council
....
Robert
fifth
troops
banks
felt
wide
dollars
R
claims
tough
Even
issued
works
knew
People
benefits
###.#
opened
immediately
Indian
goes
Bill
Service
proposed
happy
contact
response
numbers
guys
review
happened
cancer
plant
judge
accused
Committee
Services
details
television
worth
activities
hearing
yard
equipment
dropped
Union
considered
regular
Angeles
various
Democratic
Government
quite
commercial
approved
prison
rules
toward
Bay
traffic
funding
interview
designed
served
marketing
created
Hall
kept
Big
wrote
dead
owner
Business
concerns
instead
raise
benefit
offering
returned
winner
assets
host
gold
design
central
providing
forced
planned
consumer
fuel
shooting
successful
entire
vice
UN
ask
save
white
travel
popular
else
looked
_
Scott
Jackson
France
Office
movie
beginning
unit
driver
mean
adding
hands
passed
Not
gone
Most
pick
violence
ensure
Canadian
happen
Democrats
Many
attention
Of
attorney
natural
ways
Conference
itself
hopes
trip
planning
understand
owned
session
injured
Security
completed
Since
Martin
highest
Both
environment
consumers
basis
anti
###-###-####
stand
Afghanistan
cars
re
Boston
features
Although
effect
challenge
French
particularly
middle
Valley
Ohio
innings
reduce
Carolina
strategy
Writer
Russia
source
sense
finish
Thomas
posted
words
message
Reuters
advantage
Times
Sept.
limited
Mexico
serve
daughter
Green
spot
Steve
Lee
Then
applications
account
scoring
Research
organizations
How
Exchange
sports
fiscal
appeared
simply
During
Joe
Federal
Club
mind
customer
continues
bid
majority
losing
plays
follow
caused
resources
seconds
newspaper
missed
fast
parties
Other
selling
From
facility
corporate
drop
individual
Energy
damage
true
speed
cuts
target
approach
wrong
watch
consider
Co.
Financial
ran
Tom
noted
Germany
computer
housing
opportunities
card
letter
learn
risks
send
seeking
D
Korea
responsible
fun
looks
station
subject
voters
friend
existing
Jim
Al
earned
championship
Act
solution
leaving
Lake
via
taxes
parts
husband
Iraqi
effective
add
poor
Prime
inning
daily
condition
independent
confidence
items
Party
weather
sites
shots
supply
leadership
emergency
award
believes
Microsoft
safe
King
vehicles
cover
Australian
disease
Clinton
losses
peace
incident
missing
extra
owners
choice
purchase
check
approximately
estimated
guy
self
scene
Richard
Secretary
opposition
Church
moment
helping
finally
index
size
Western
critical
spend
girls
Director
develop
door
launch
spring
certainly
published
talking
soldiers
operation
crowd
professional
described
African
holding
declined
changed
gives
please
elections
launched
necessary
joined
injuries
stocks
developed
lose
exchange
Also
Virginia
beyond
protect
previously
Hill
options
domestic
calling
fine
blood
Those
Jan.
Britain
upon
Army
model
regional
proposal
aid
candidate
red
Ryan
Asia
River
version
degree
hear
Sports
struck
tour
crime
murder
activity
act
floor
measures
lack
evening
candidates
Management
victims
Christmas
north
starts
Peter
champion
relationship
girl
basketball
south
fighting
Air
population
located
twice
stores
concerned
material
Israeli
church
reporters
figures
placed
page
Public
Open
guilty
plus
analysts
believed
caught
Michigan
drugs
remaining
confirmed
*
expectations
original
partner
concern
art
appear
join
retail
prior
discuss
governor
offense
clients
Division
division
killing
mid
specific
Corporation
Today
claim
records
Star
paper
Dec.
facilities
Just
sixth
sex
###.##
Oct.
alone
written
brand
Another
Nov.
band
NFL
committed
style
recovery
worst
block
primary
legislation
attempt
green
figure
gain
expects
standards
application
pre
threat
fully
T
survey
de
presidential
managed
type
wins
greater
progress
factors
street
border
walk
claimed
battle
speech
allows
article
focused
Davis
civil
option
lines
sources
avoid
deep
highly
hundreds
Year
NEW
capacity
worldwide
About
radio
heavy
Republicans
Kevin
Community
knows
seem
broke
Hospital
feature
Feb.
Google
developing
cell
Brian
agencies
measure
improved
debate
THE
traditional
favorite
guard
laws
direct
mark
stories
fair
Securities
stopped
allowing
unique
seat
grow
English
note
appears
Institute
putting
Development
Sen.
loan
offensive
nice
rising
standard
Her
estate
boy
suffered
loans
communities
digital
Three
weapons
arrived
tied
advanced
mission
hotel
Russian
Arizona
illegal
camp
presented
Despite
prevent
expressed
names
Meanwhile
defensive
God
increasing
word
Georgia
identified
brother
strike
Middle
War
hot
Miller
affected
pulled
responsibility
pair
directly
Matt
units
difference
union
Miami
signs
perfect
criminal
Under
Detroit
park
fired
bottom
Wall
request
####-##
prepared
interested
showing
experts
respect
wait
spoke
approval
waiting
box
answer
usually
EU
analyst
protection
born
baseball
places
Executive
joint
ruling
generation
particular
learned
simple
II
user
rule
Medical
Home
combined
Bob
faces
voice
picked
audience
ones
seemed
hurt
revenues
ranked
carry
documents
speak
Justice
alleged
cities
remained
Ford
boys
books
policies
Taylor
sometimes
competitive
coverage
seasons
produced
facing
decisions
millions
Coast
seeing
produce
German
thinking
Minnesota
IT
commitment
shown
Aug.
reasons
abuse
decades
Francisco
serving
tonight
rebounds
draft
cross
individuals
Apple
established
accident
zone
platform
environmental
deliver
active
infrastructure
decline
appeal
Christian
Houston
C
citizens
prime
Tony
clean
holiday
ordered
status
Toronto
towards
Their
push
language
Rs
crash
flight
balance
Series
table
require
Palestinian
panel
quarterback
pleased
eventually
keeping
Beach
partners
analysis
spokeswoman
asking
provider
manufacturing
seek
equity
Black
bus
seventh
remember
Island
teachers
Chairman
industrial
buying
warned
Young
section
surgery
pounds
initial
arrest
junior
Southern
Japanese
complex
becoming
multiple
entered
Atlanta
elected
sides
victim
Is
Philadelphia
Grand
setting
drivers
Blue
enjoy
penalty
hitting
Jeff
voted
draw
carried
assistant
Capital
lawyer
consecutive
skills
announcement
older
Kansas
Photo
#####
bought
votes
commission
Game
actual
physical
feeling
stated
mostly
location
Dallas
jail
separate
decade
#-##
boost
storm
attend
reading
paying
Judge
ban
screen
devices
quick
delivery
sound
Colorado
perhaps
Bowl
Network
inflation
easily
strength
registered
fees
meetings
email
closing
deficit
denied
offices
presence
Foundation
variety
Pacific
Jr.
powerful
USA
PM
NYSE
slow
package
actions
expenses
regarding
Andrew
positions
maybe
spread
Tim
advertising
Sun
agent
Iowa
hoping
pitch
William
solid
truck
onto
whom
testing
society
continuing
forecast
contributed
revealed
watching
grew
Barack
finance
suggested
challenges
throw
web
Supreme
walked
university
larger
southern
reduced
honor
definitely
schedule
Charles
file
Jersey
movement
determine
decide
Officer
Gov.
bringing
steps
Calif.
eye
squad
Ministry
estimates
healthy
core
admitted
finding
agree
streets
percentage
mortgage
Post
B
normal
fresh
relief
Jason
Because
square
wind
creating
ice
massive
clearly
McCain
suspect
winter
increases
S
Fund
outstanding
excited
piece
helps
headed
associated
labor
determined
campus
trouble
Media
distribution
Why
Gulf
smaller
contest
Education
Over
completely
relations
eighth
fear
WASHINGTON
Global
lawmakers
opinion
standing
rally
Olympic
YORK
Wilson
Mary
Illinois
exactly
streak
recorded
train
weight
failure
science
secure
acquisition
maintain
conducted
knowledge
baby
learning
proud
tie
Louis
license
Avenue
refused
Super
century
discussion
Information
advice
doctors
technical
picture
airport
supporters
rain
author
climate
firms
device
fellow
Mayor
culture
pro
Zealand
plants
#,###,###
Technology
Stock
Senior
Its
Still
pace
Ben
sort
closer
Asian
sport
tomorrow
count
display
intelligence
willing
patient
jury
considering
reality
confident
visitors
extremely
Stadium
effects
row
Attorney
link
extended
Once
dog
listed
tickets
lawsuit
downtown
gains
character
tests
expansion
nature
expand
doubt
lived
profile
recession
strategic
restaurant
faced
shareholders
selected
corner
teacher
leads
enforcement
cutting
write
parking
studies
edge
€
raising
Anderson
contracts
requirements
communications
aware
Staff
province
resident
buildings
Fort
materials
fit
Dow
employee
.###
in.
secretary
Fire
plane
politics
connection
youth
touchdown
assists
advance
Howard
matches
writing
ending
photo
accept
reform
ongoing
Rep.
explained
sexual
Before
accounts
bond
covered
Seattle
myself
behavior
views
stuff
Team
driven
Daily
direction
album
technologies
catch
Vice
gained
golf
dangerous
scale
army
centers
gun
volume
ceremony
enter
Agency
hole
falling
meant
removed
supported
Foreign
crew
interests
professor
flow
backed
image
delivered
retired
trust
chances
broken
worse
sought
Instead
eyes
favor
attended
Force
cards
securities
Baghdad
entertainment
treated
grade
conduct
NCAA
stars
cast
nearby
northern
allegedly
banking
assistance
Dan
uses
defeat
Market
assault
partnership
NBA
captain
institutions
possibility
east
Life
pain
recognized
Only
threw
occurred
Best
Great
west
Man
Diego
Islamic
welcome
introduced
immediate
Four
convicted
Well
bigger
appearance
miss
blue
ideas
kick
knee
payments
Lewis
negotiations
seats
authority
Eastern
Your
Among
experienced
negative
slightly
aircraft
religious
Ireland
affect
returns
neighborhood
urged
alternative
resolution
ruled
debut
choose
Centre
traded
achieve
prove
poll
bar
interesting
investments
M
handed
compete
drove
currency
Award
tools
Fox
Here
Jack
basic
wireless
Gold
wearing
perform
Northern
Tour
discovered
Frank
marriage
governments
Stephen
receiving
notes
researchers
speaking
personnel
Woods
Alex
nations
deaths
veteran
reporting
kill
Muslim
limit
duty
P
nor
snow
surprise
writer
Call
holds
manage
happens
rock
Spain
fee
largely
fan
Allen
justice
Italy
Each
collection
Beijing
jump
touch
Morgan
fly
coaches
Games
Tigers
replace
shop
Will
portfolio
sentence
magazine
passing
changing
W.
GM
song
Town
Former
Arab
playoff
orders
##s
cold
brings
deals
engine
unless
plenty
talent
Cleveland
pull
easier
friendly
Gaza
represent
profits
village
classes
encourage
everybody
rich
heat
US
improvement
declared
filled
Championship
Power
rival
bomb
begins
rating
deputy
wish
warning
mile
transfer
Eric
Society
apparently
practices
sit
ninth
native
Daniel
crude
stake
carrying
Class
roads
Long
shut
goods
accepted
supplies
represents
Patrick
thanks
dozen
wall
Indiana
Joseph
trend
Santa
®
Women
voting
amid
Nations
houses
Fed
suspended
entry
female
Top
participate
armed
Free
sitting
client
terrorist
leg
generally
Jose
`
text
passes
adults
properties
influence
Like
agents
unemployment
savings
unable
shopping
Time
Administration
promote
minor
identify
Let
possession
Kelly
discussed
payment
telephone
responded
Sox
returning
Systems
readers
telling
mayor
Oklahoma
Pittsburgh
Taliban
bills
possibly
pushed
awards
giant
alcohol
fish
task
J.
fraud
sister
storage
multi
organized
requires
terrorism
otherwise
Jordan
Please
ticket
Paris
arm
Gary
suicide
struggling
structure
allegations
significantly
maker
breaking
managing
bodies
retirement
younger
moves
grant
ten
animals
margin
turning
appointed
aimed
Report
races
networks
conflict
E
Oil
Defense
tight
talked
increasingly
modern
whatever
intended
supporting
chain
locations
executives
numerous
electronic
@
heads
Tennessee
appropriate
Every
flu
stood
disaster
farm
racing
walking
involving
meaning
excellent
suit
rescue
sending
ride
settlement
route
feels
factor
passengers
linked
DC
Net
songs
except
Anthony
awarded
understanding
Journal
Dr
Hollywood
exercise
expensive
Moore
married
supposed
La
0
Dave
Royal
Korean
broadcast
farmers
Catholic
Tech
realize
scheme
gay
Democrat
arms
Gordon
jumped
stands
Singh
Ltd.
dedicated
improving
mass
Rock
notice
providers
lawyers
Food
Program
investigators
sets
doctor
Academy
Children
coalition
update
Italian
stations
producer
Manager
freedom
sentenced
code
comprehensive
fill
Family
Nick
Clark
assist
surprised
euro
owns
waste
playoffs
combination
beating
Reserve
grand
contained
apply
rejected
compensation
shared
Spanish
Orleans
heading
Wisconsin
earn
protest
winners
electricity
island
performed
#
watched
models
phones
Mobile
memory
finals
closely
Brazil
meters
exciting
ship
films
Though
controlled
regulations
Kennedy
innovative
AM
Yet
prosecutors
upcoming
NY
flat
ends
selection
Harris
employment
founder
visiting
primarily
Stewart
Pennsylvania
Earlier
handle
Columbia
clinical
Oregon
acting
RBI
Denver
SEC
threatened
pointed
worried
Facebook
Sheriff
camera
Irish
estimate
seriously
fashion
monthly
headquarters
Nasdaq
Premier
+
split
photos
brain
Kong
Vegas
rural
Law
participants
Hong
animal
respectively
transportation
apartment
internal
Show
cells
crimes
rare
Thompson
relatively
publicly
remove
Afghan
conservative
Who
mine
regulatory
respond
Kentucky
suspected
Music
actor
militants
reduction
Delhi
severe
Edwards
Communications
purpose
engineering
venture
bench
acquired
Yankees
loved
indicated
professionals
impressive
becomes
Henry
Kim
values
grown
vs.
Social
dinner
initiative
Adam
stretch
Windows
Old
famous
A.
fewer
cable
cap
counts
expense
reflect
stronger
trees
matters
none
festival
importance
Local
singer
operate
tackle
movies
pound
coast
promised
scores
color
#.###
lots
Manchester
managers
historic
yourself
Treasury
Little
Eagles
Memorial
Turkey
Alabama
Total
directors
clubs
truly
opponents
LLC
Atlantic
weak
Real
Las
pool
window
signing
shortly
replaced
hospitals
faith
minimum
comfortable
targets
suffering
pleaded
boat
ex
efficient
wounded
images
freshman
vision
uncertainties
Field
Authority
busy
machine
Project
faster
franchise
extend
Lady
Hamas
dance
quoted
initially
fixed
Sam
bridge
auto
familiar
ministry
artists
financing
Drive
document
Officials
dogs
asset
circumstances
Utah
enable
Van
mix
scientists
sea
mixed
register
tells
traveling
editor
proved
volunteers
St
obviously
Phoenix
cool
invited
expert
Be
iPhone
yen
Sales
Andy
ties
soccer
Shares
prepare
hired
lowest
broad
secret
#.####
Giants
dark
sees
path
boss
Greg
wild
reportedly
leaves
Finance
hair
Or
attempts
Commerce
shift
Hamilton
overseas
E.
Several
Fla.
greatest
targeted
principal
causing
visited
western
adds
industries
Golden
types
featured
barrel
shoulder
representatives
opposed
athletes
worry
serves
contains
channel
emerging
ad
association
Jewish
'##
Highway
tree
graduate
argued
Rangers
die
maximum
integrated
Republic
democracy
announce
GOP
Trade
K
sharing
portion
priority
theater
suspects
flights
category
surface
maintenance
cooperation
parent
Up
gift
Any
custody
Festival
directed
anticipated
Saudi
NC
Robinson
unlikely
widely
chosen
upset
Massachusetts
male
Walker
ages
newly
successfully
bonds
Yes
enjoyed
Toyota
Cross
dream
nationwide
concert
Second
Olympics
residential
Egypt
BY
phase
outlook
effectively
Good
thinks
mental
fears
granted
formed
Coach
stolen
Mountain
anniversary
eat
deadline
Ray
par
transaction
truth
communication
Sydney
complaint
enterprise
afford
distance
reaching
metal
####-####
shape
Regional
era
beautiful
Larry
investigating
terror
purchased
reducing
delay
Tampa
Human
click
representing
titles
regime
criticism
suggest
Prince
Ali
coaching
hoped
S.
politicians
corruption
Airport
Wright
Wayne
recognize
absolutely
Missouri
Trust
coal
informed
Ave
Special
joining
tested
airline
Port
#,###.##
turns
dealing
aggressive
Craig
cited
districts
detailed
identity
birth
weekly
damaged
carbon
FBI
efficiency
Q
mentioned
PC
worker
Singapore
Labor
historical
amazing
demands
submitted
struggle
alive
defeated
manufacturers
Guard
Index
behalf
auction
dispute
Scotland
reserve
brands
Assembly
judges
M.
permanent
establish
therefore
overtime
agenda
pop
lineup
polls
library
Arts
pushing
presentation
mainly
Awards
Entertainment
capabilities
sponsored
Nelson
pieces
artist
Campbell
Kerry
NHL
herself
potentially
surrounding
buyers
Ms.
momentum
operates
messages
immigration
acknowledged
originally
crucial
System
discussions
brief
realized
inches
adult
banned
extensive
reporter
ultimately
silver
Maybe
heavily
counties
achieved
reserves
rookie
improvements
usual
starter
BP
attempted
Mississippi
parliament
motion
links
opener
mining
represented
guidelines
Iranian
Pro
depth
Area
Such
findings
struggled
Art
aside
recovered
plate
relevant
connected
wear
musical
complaints
emissions
drew
Dubai
pending
stayed
Austin
threats
blog
letters
AT
Louisiana
supports
neighbors
passenger
subsidiary
Standard
proposals
gap
consistent
Bureau
Week
internet
explain
monitoring
tool
Hotel
bankruptcy
entering
qualified
restaurants
Chelsea
protests
specifically
Rick
Creek
El
Ron
temporary
guess
fought
happening
futures
Baltimore
horse
purposes
combat
Museum
seed
computers
holes
reputation
flying
capable
treat
limits
smart
Harry
colleagues
steel
Bruce
receiver
eligible
Josh
cultural
Commissioner
stadium
electric
Five
expanded
error
Sri
pitcher
bed
Bell
criticized
concluded
sat
typically
neither
salary
stepped
utility
registration
wing
fallen
prize
X
Resources
reaction
eastern
collected
attacked
anywhere
concept
retailers
disappointed
performing
Murray
homer
preparing
destroyed
Carter
drinking
gathered
roll
featuring
filing
accounting
toll
trained
pictures
recommended
Test
essential
apart
invest
founded
funded
violent
marked
OF
Alan
drilling
noon
courts
performances
fields
throwing
resulted
forms
Navy
Water
See
celebrate
Sarah
summit
flag
processing
defending
smoke
segment
Maryland
PRNewswire
seniors
Authorities
operators
representative
pilot
Governor
suggests
Antonio
differ
contain
touchdowns
warm
teaching
producing
wonderful
Ontario
follows
hockey
##st
wine
background
expertise
sharp
investor
Rice
dozens
educational
foundation
quarters
solar
Justin
thus
Are
Science
glass
Tokyo
creation
acres
™
Can
Economic
challenging
versus
river
Rose
Simon
encouraged
amounts
fishing
Phil
Forest
danger
stress
virus
ET
healthcare
promise
Don
extension
affairs
false
Deputy
rivals
obtained
Vancouver
Sony
laid
substantial
puts
proven
resource
Saddam
Football
NATO
overnight
finishing
gross
ABC
producers
bases
ring
exclusive
outcome
doors
failing
Through
Vietnam
threatening
drawn
Arkansas
###th
Roberts
adopted
generated
counter
Russell
OK
elsewhere
Radio
carries
Lincoln
transport
feed
creative
academic
transition
print
degrees
territory
Channel
Connecticut
Right
Terry
Affairs
Online
awareness
articles
Mitchell
sophomore
ourselves
blame
Stanley
copy
likes
developers
tracks
kid
recognition
hosted
Jon
civilians
opinions
stable
Lions
throws
involve
runner
shoot
Steven
regulation
relationships
wake
acts
engaged
blow
journalists
mistake
premium
Live
listen
proper
vital
assessment
Brad
Safety
Lebanon
Annual
strongly
ballot
Earth
Oakland
remarks
keeps
Country
strategies
chose
Analysts
length
Thomson
captured
resulting
dismissed
teammates
saving
Jay
Major
characters
veterans
Industry
yield
ministers
inch
bag
Get
mention
Taiwan
generate
predicted
topic
Jerry
Love
witness
gasoline
protesters
Marine
Liverpool
exports
Technologies
Ken
facts
Indians
operator
NBC
initiatives
recalled
thank
rooms
roughly
HIV
expanding
causes
Square
output
guests
ill
Twitter
contributions
necessarily
hate
ratings
somebody
Insurance
contribute
preliminary
Bloomberg
poverty
materially
van
bail
handling
delayed
anybody
Alaska
equal
lift
replacement
applied
Jonathan
valuable
obvious
forum
lunch
charity
Pakistani
Price
sessions
Charlotte
exploration
developments
Rodriguez
arts
Parliament
ownership
pitched
opponent
repeatedly
prospects
spirit
involvement
questioned
marks
exposure
moments
manner
monitor
ease
classic
Ed
CBS
stimulus
Investment
quarterly
Ten
Junior
Next
skin
TM
critics
Blair
chair
settle
blocked
guidance
Duke
impossible
forget
meets
gotten
euros
argument
lights
donations
Sean
Dean
champions
Grant
Qaida
submit
blocks
stick
regions
drink
requested
competing
consumption
projected
Graham
recommendations
Cincinnati
Aaron
sectors
dry
begun
pension
emerged
powers
desire
honored
officially
Milwaukee
trucks
appointment
wonder
Main
terrorists
Following
Six
tourism
Nigeria
medium
rounds
Ross
elements
emotional
III
celebration
Nevada
semi
Hills
theft
Warner
remote
coordinator
testimony
plastic
Investors
covering
employers
trends
Palestinians
administrative
theme
Baker
sleep
boards
Mexican
dominated
blamed
conversation
agreements
installed
developer
compliance
legislative
Portland
Leader
insisted
meter
witnesses
Theatre
minority
eating
integration
Marshall
ranks
Golf
citing
Airlines
soft
Video
enhance
drama
spots
saved
wave
Rights
reasonable
G
Roger
Mart
volunteer
expecting
foul
DVD
museum
FDA
ads
cameras
Co
Brandon
Ms
blast
vast
satellite
Adams
machines
covers
tries
Mumbai
controversial
makers
unusual
actress
instance
settled
writers
fastest
knocked
repair
decrease
master
totally
Khan
harder
NASDAQ
yes
collapse
coffee
Cameron
activists
dramatic
attract
Senator
BBC
Cardinals
recall
merger
opens
pages
attorneys
Limited
Matthew
crore
Intel
guest
Solutions
experiences
posting
Parker
Library
unknown
restrictions
guarantee
stability
Orlando
Transportation
claiming
thrown
trillion
Alliance
confirm
edition
Holdings
operational
attending
Jennifer
smoking
..
inspired
function
flood
firefighters
interim
finds
lending
winds
Tribune
bin
Point
Back
Carlos
Barry
Lane
Reid
beaten
alongside
commander
port
Wales
aim
differences
procedures
contribution
correct
urban
tech
Moscow
staying
halftime
Murphy
processes
Madison
steady
properly
tremendous
implementation
knowing
fix
Champions
maintained
defend
signal
civilian
explosion
ranging
annually
sounds
affordable
obtain
capture
resistance
species
brothers
highway
abroad
canceled
tradition
Abu
checks
hosts
controls
subscribers
birthday
Pat
singles
sick
comedy
ERA
sheriff
Care
newspapers
sanctions
saves
Orange
Hurricane
lucky
wedding
trials
Motor
studio
Labour
Maine
dividend
rapidly
roster
defined
empty
defender
Bears
Private
folks
speculation
roof
regularly
lay
Todd
kilometers
Miss
viewers
Muslims
chip
riding
Jan
tennis
recording
quiet
extent
Township
Charlie
delivering
pricing
cleared
participation
Keith
Christopher
bear
Building
hall
competitors
stuck
packed
Sea
Out
Victoria
peak
violation
Where
qualifying
Latin
soldier
mistakes
mph
innovation
resort
wealth
striker
Alexander
Jean
formal
Sometimes
Disney
Perry
audio
IBM
Oh
guide
Partners
marijuana
pursue
taxpayers
sensitive
broadband
Roy
exhibition
Tiger
Bryant
papers
upper
Buffalo
Everyone
Without
completion
interviews
atmosphere
Collins
tons
switch
Morris
occur
NJ
clothing
triple
components
Kyle
seeded
entirely
encouraging
manufacturer
lap
recover
obligation
unions
Ian
commissioner
Elizabeth
sustained
branch
Dennis
networking
beer
Wal
availability
Evans
earthquake
immigrants
drawing
cricket
suspension
Night
warrant
medal
scientific
Penn
seized
Verizon
addressed
pitching
ankle
visits
chemical
inappropriate
tend
Franklin
participating
offset
perspective
privacy
departments
ranking
athletic
medicine
beach
carrier
judgment
relatives
breaks
GAAP
transactions
breast
export
grants
striking
normally
Montreal
demanding
Having
Students
Rob
choices
Delta
temperatures
Indonesia
absence
climbed
doubled
hiring
Katrina
ratio
Legislature
Panthers
Plan
Software
pipeline
hundred
button
consideration
runners
Medicare
crews
F
Dakota
Head
###-###
nomination
AIDS
repeat
column
incidents
escape
implement
operated
gathering
prospect
TSX
AND
Environmental
Greece
Revenue
C.
promotion
proceeds
Express
luxury
plea
falls
referred
prompted
taught
DNA
De
qualify
errors
Lord
seeks
virtually
TO
Ann
Mac
membership
rail
attitude
Credit
Swiss
Speaking
protected
angry
alert
Dutch
Lawrence
robbery
referring
reference
NASA
Phillips
fairly
Warren
violations
disabled
clothes
rebels
resolve
Take
prosecutor
Consumer
specialist
rushing
Lakers
hitter
resume
typical
balls
hire
scandal
kicked
consequences
cycle
Falls
Control
walks
timing
bright
select
aged
weapon
grounds
intense
testified
investigate
bound
stressed
Wells
intent
L.
NASCAR
pack
roles
rebound
Based
rushed
Ward
hotels
barrels
channels
zero
imagine
distributed
windows
provision
searching
strikes
congressional
hosting
premier
videos
Classic
Bridge
Sacramento
Springs
bars
gang
secured
delays
Data
Mount
authorized
traveled
demanded
sun
shall
Melbourne
novel
frame
attractive
drives
Chase
deadly
strengthen
somewhat
Bobby
Third
LONDON
shirt
Queen
fail
Racing
battery
acquire
permission
Unfortunately
shock
arrive
helicopter
bags
persons
advised
Thailand
stages
talented
Cook
clock
loaded
towns
Cape
Marketing
permit
apparent
survived
Susan
R.
dad
abortion
indeed
aims
illness
reforms
approve
thoughts
surge
IN
scenes
Drug
journey
longtime
imposed
promoting
consulting
therapy
Oscar
posts
super
requests
Men
statistics
###m
Lt.
disappointing
approached
Tyler
Village
collaboration
dialogue
residence
item
collect
prisoners
traders
equivalent
adjusted
Turner
noticed
adviser
Rogers
discovery
appearances
Gates
hopefully
courses
victories
hardware
mom
Douglas
landed
shelter
relative
sustainable
Lanka
enables
Pentagon
Asked
Tournament
thousand
fantastic
files
Indianapolis
bike
tape
rush
nobody
opposite
1st
command
factory
t
bat
format
religion
provincial
teen
episode
probe
Read
Go
rapid
Sgt
fled
BC
harm
kitchen
answers
situations
Civil
championships
reliable
benchmark
neck
trips
dates
donated
waters
Chamber
promises
stroke
categories
restructuring
aspects
rely
quit
IP
diseases
argue
inquiry
methods
longest
associate
Wood
##,###,###
guns
Capitol
Way
Cooper
accurate
tiny
sweet
Youth
overcome
containing
Cancer
doubles
Northwest
vaccine
focusing
Mets
Station
contacted
ideal
crashed
survive
writes
regulators
gallon
unclear
map
slipped
Quote
Herald
pct
vendors
anonymity
penalties
independence
liked
fighters
LA
slowly
automatically
Malaysia
frequently
Perhaps
forcing
Palin
convention
Ltd
preferred
Doug
universities
meat
Edward
economist
garden
honors
Whether
senator
exposed
alliance
contrast
teach
proof
Patriots
Syria
Manhattan
indicate
Section
tank
exit
complained
Columbus
Hampshire
Barbara
basically
rolled
plot
funeral
Arsenal
McDonald
solo
dropping
Form
preparation
yellow
vulnerable
appreciate
#-#-#
Hillary
fat
milk
method
Randy
Hawaii
Donald
provisions
n
i
Boeing
broader
picking
Garcia
forecasts
welcomed
prominent
Garden
electronics
Income
duties
damages
######
lane
widespread
backing
Palm
concrete
speaker
suffer
Ottawa
regard
sad
tourists
arrival
Madrid
Fair
allies
optimistic
Spring
consultant
deployed
warming
moderate
Saints
Land
honest
Protection
#:##.##
batting
Islam
spill
Stanford
meanwhile
label
hander
campaigns
Cuba
Inc
Enterprise
Arena
constitutional
bonus
Shiite
detail
ethnic
lies
pointer
neighbor
lifted
Keep
sub
grabbed
investing
Tickets
rated
personally
explains
wage
deeply
publication
trail
Jimmy
restore
Haiti
useful
Turkish
string
mountain
Hudson
periods
burning
legs
Michelle
Stars
Hughes
hip
swing
SAN
girlfriend
cheap
eliminate
Memphis
passion
>
appeals
Libya
Chrysler
answered
badly
extreme
Butler
respective
dress
linebacker
shops
retailer
petition
neighboring
stem
diluted
promising
impressed
Carl
D.
Qaeda
Watch
maintaining
backs
symptoms
noting
mouth
postseason
download
nonprofit
etc.
luck
Rio
birds
Policy
Jamie
sharply
Shanghai
Note
Given
carefully
Goldman
upgrade
secondary
resigned
shoes
Baseball
barely
succeed
routine
iron
consistently
Richmond
Wireless
parks
backup
Federation
Bulldogs
hardly
reviewed
Relations
Hunter
Cabinet
implemented
Cubs
AG
Besides
loose
programming
exist
bombing
forth
load
taste
rape
Camp
somewhere
midfielder
clash
paint
Notes
dealers
cloud
Broadway
uncertainty
gaming
suddenly
MP
Yahoo
entitled
delighted
database
Cole
Jesus
destruction
assigned
Danny
Zimbabwe
comeback
teens
Mrs.
venue
Gen.
consensus
Arabia
introduce
demonstrated
Others
attendance
solve
controversy
Lynch
suppliers
belief
Organization
walls
Space
Schools
Sir
convinced
household
anyway
Assistant
express
guards
ups
missile
conspiracy
detained
lying
diverse
Gas
employed
mutual
versions
comparison
beauty
viewed
Cash
protecting
earning
organizers
economists
acquisitions
felony
Sharon
stops
nights
kills
Review
glad
Constitution
teammate
elderly
updated
tip
pulling
Watson
Look
baseman
Nancy
billions
temperature
converted
sponsor
Forum
afraid
repeated
reflects
Fisher
Va.
sugar
pledged
Casey
Poor
Elementary
crazy
Members
N.
raw
virtual
democratic
releases
faculty
counsel
kinds
Place
targeting
constant
Sunni
offerings
retain
connect
funny
hurricane
amendment
sufficient
Digital
prosecution
constitution
assume
firing
2nd
averaged
soil
purchases
Markets
depending
J
investigations
HP
probation
diplomatic
horses
Final
relating
Fred
conviction
Jefferson
Lisa
Scottish
CIA
Natural
lease
disclosed
AFP
procedure
parade
Laden
conclusion
inventory
flexibility
wheel
intends
unprecedented
Iraqis
Fame
SA
economies
casino
Professor
Argentina
occasion
powered
Pirates
flooding
revised
tired
Peterson
citizen
Small
Nebraska
ID
commit
credits
assembly
Kings
Prosecutors
locked
insurgents
planes
sheet
sons
Motors
margins
handful
airlines
Circuit
intention
troubled
Sullivan
abandoned
fitness
priced
Jets
regardless
Dick
spoken
outdoor
Cowboys
carriers
Angels
hero
Wallace
Reports
Operating
tips
celebrated
component
CA
handled
Contact
challenged
Hussein
Have
Kenya
understood
essentially
Richardson
techniques
downturn
Key
Full
departure
tea
nursing
engage
reveal
everywhere
raises
landing
diabetes
incredible
memories
wood
worries
burden
liberal
involves
compromise
Billy
Philippines
Neither
cabinet
fires
ordinary
filings
latter
Obviously
institution
divided
Idaho
homeless
interactive
singing
Part
Juan
Vikings
fleet
Powell
Devils
Line
Companies
Drew
server
Reed
keen
Milan
Abbas
rear
Greek
Armstrong
lessons
surprising
acre
innocent
Silver
Convention
requirement
basket
takeover
anymore
tall
nervous
nominated
invested
Anyone
partly
TD
Sweden
bowl
Switzerland
shareholder
actors
rallied
Plus
calm
bird
lab
Later
Martinez
definition
productivity
reader
execution
designer
enhanced
transferred
bet
Electric
odds
homeowners
updates
CD
Emergency
agriculture
Raiders
copper
Film
##nd
designs
Caribbean
principles
Brothers
vacation
modest
legacy
fruit
burned
peaceful
lie
arrests
pregnant
sight
copies
agricultural
Phillies
Montana
Ferguson
discount
Harper
noise
ultimate
certified
incentives
clinic
collapsed
unveiled
swept
valued
Wade
Sudan
rough
commented
requiring
sells
delivers
Region
Early
'##s
Seven
Ocean
exhibit
decreased
Honda
GDP
samples
prefer
achievement
Chavez
supplier
demonstrate
anger
welfare
feedback
hunting
lifestyle
presents
highlight
motor
Kate
earth
shipping
Speaker
hat
circuit
rolling
Jeremy
patrol
explore
Peace
N
ships
Tehran
boxes
CITY
Blues
praised
prescription
engineers
equally
chicken
Jessica
grass
crossed
Warriors
extraordinary
Bradley
destination
Reform
introduction
screening
PGA
calendar
authors
Brett
Results
reverse
pride
militant
Player
gifts
Maria
objective
Action
sized
Stone
Ashley
lifetime
Nashville
tracking
invasion
CNN
minds
Until
verdict
attacking
buried
Laura
chapter
Announces
functions
Corp
nationally
Pa.
tonnes
Brazilian
attached
packages
Check
colors
sacrifice
electrical
resignation
Harvard
creates
Simpson
camps
Gonzalez
recruiting
risen
Masters
rumors
pitches
thin
rent
'S
Wildcats
»
sentiment
external
Farm
describe
concerning
displayed
enemy
constantly
corn
elite
Birmingham
reflected
midnight
indication
substance
swimming
pet
Finally
advisory
touched
liability
Mason
tone
deployment
guaranteed
journalist
pattern
chips
Summit
Soviet
Marc
turnovers
excess
delegation
enabled
Nokia
Harrison
crop
organic
Bonds
Dodgers
Baptist
dating
Comments
bombs
comfort
imports
fundamental
gear
engines
colleges
Construction
outs
Cox
HD
flew
deposits
offshore
Did
Lopez
assured
celebrity
couples
buses
robust
View
lists
SC
MD
foods
shocked
Winter
Agriculture
classroom
Directors
arena
hanging
participated
designated
slide
Linda
3D
enormous
adoption
deserve
Dame
careful
parliamentary
V
Currently
tragedy
patent
H
wore
Metro
Industrial
menu
rarely
platforms
scenario
Bulls
hike
sponsors
reception
picks
hopeful
Mohammed
accuracy
Netherlands
tackles
dramatically
contractors
Auto
jet
3rd
Me
Blake
Poland
Additionally
Corps
bedroom
licenses
meal
reviews
rocket
context
Additional
Amy
proprietary
recommendation
smile
fate
suggesting
pole
holidays
bunch
Chad
listening
singled
uranium
ensuring
Corporate
surveillance
B.
highlights
Liberty
speaks
Southwest
forest
popularity
underlying
proceedings
crossing
sudden
renewable
affair
wound
attempting
Luke
memorial
halt
humanitarian
prevention
fatal
=
Rev.
Anne
mode
legislators
engineer
sparked
mortgages
Liberal
averaging
starters
addresses
Crown
decent
subsequent
Kent
closure
Make
wider
belt
Heart
Planning
trainer
Light
lenders
Friends
dynamic
asks
Prior
narrow
Heat
remarkable
donation
observed
tribute
RBIs
Duncan
Independent
arguments
fence
tens
predict
sorry
spokesperson
Ukraine
briefly
lined
Editor
terrible
Federer
defendants
launching
thirds
municipal
pharmaceutical
Ted
theory
Tax
sweep
chest
sexually
checked
bone
bailout
bands
beef
recovering
Spurs
Neil
interviewed
WIRE
pollution
Manning
Delaware
Medicine
aboard
defendant
survival
drill
Industries
travelers
commodity
Bryan
Overall
Magic
websites
Stevens
Francis
landscape
Brooks
USD
Investigators
accompanied
Championships
promoted
Berlin
letting
boats
Buy
moral
infection
Workers
crack
inmates
establishment
symbol
automatic
formerly
stole
routes
corporations
Christ
boom
LOS
eliminated
Brady
Kingdom
Does
wire
arrangements
Against
lighting
exception
Montgomery
cup
complicated
intellectual
daughters
leverage
merely
Car
Knight
subjects
Egyptian
accessible
Reds
Hope
legitimate
Looking
shed
Short
suitable
preserve
diagnosed
deputies
enabling
Route
admits
Television
Calgary
attracted
trailer
climb
Support
Ellis
raid
ANGELES
studying
Braves
puck
gambling
deciding
renewed
deposit
Networks
permits
Child
adopt
reward
roots
matched
Housing
Karen
Steelers
##rd
Unit
enjoying
hunt
Auburn
recommend
Bennett
interior
breakfast
childhood
Further
Derek
escaped
Mass.
Products
killer
practical
Foster
integrity
installation
sample
Bishop
pit
oldest
Derby
transmission
Book
garage
satisfied
Johnny
graduated
Weather
gaining
cocaine
stream
Hawks
Ridge
privately
detention
specialty
spotted
Venezuela
admission
hedge
desperate
withdrawal
hang
collective
intend
Stocks
km
ambassador
exact
commissioners
purchasing
presidency
trains
topics
Jerusalem
urging
Kids
wanting
connections
feelings
Down
underground
Busch
comparable
eager
unlike
homers
audit
wages
Troy
Southeast
ESPN
unchanged
neighborhoods
governing
entrance
advocates
Everybody
dealt
slot
determination
defended
Indeed
pays
adequate
Jane
Walter
rental
addressing
standings
USC
conservation
listing
shuttle
liquidity
Carroll
deeper
Unlike
Notre
Mills
holders
documentary
elect
volumes
Rich
publisher
Superior
weakness
tag
gather
employer
lake
depends
tobacco
loves
acted
conversion
Budget
Gray
Ahmed
cheaper
topped
surveyed
superior
preseason
structures
Oracle
diet
Myers
U
evaluation
painting
conducting
Everything
flexible
Freedom
forever
dressed
footage
Nearly
deny
resolved
pickup
lady
households
objectives
tsunami
admit
Band
rebel
contractor
equipped
cooking
humans
accidents
cleaning
dual
survivors
difficulties
End
Hopefully
licensed
tribal
delegates
capability
rugby
headline
insists
sole
retire
broker
announcing
Louisville
ordinance
highlighted
affecting
mood
input
telecommunications
totaled
judicial
Barcelona
studied
Pete
criteria
aspect
fault
pointers
intervention
element
teenager
emphasis
Being
monetary
##m
salaries
hearings
blew
Quarter
Rome
heating
waited
charter
Non
tires
chase
circle
Girls
Thanks
Chiefs
Gibson
statewide
obligations
Max
Pope
nominee
assumptions
O
frequent
riders
BUSINESS
Packers
Wild
install
drinks
AL
punishment
removal
planet
quake
Commonwealth
considerable
Sky
Airways
semifinals
athlete
furniture
relay
racial
litigation
profitable
yuan
violated
##,###.##
dominant
vowed
signature
Philip
headquartered
Bangladesh
Colts
Bond
sits
custom
pump
Jews
Mrs
marketplace
referendum
respected
conventional
stopping
Summer
signals
feared
extending
dancing
Athletic
discrimination
Forward
Money
frustrated
LSU
###-##
celebrating
Citigroup
Work
assess
voter
globe
elementary
log
uniform
Jake
4th
deemed
Musharraf
strain
churches
Again
tears
Grove
suite
Bar
automotive
Using
Associates
Bailey
personality
greatly
Should
tougher
Hilton
chemicals
Henderson
depend
Czech
Dale
wildlife
fake
replacing
indicates
actively
Officers
iPod
hidden
Interior
Steel
politically
Boys
meals
publishing
spam
northwest
Clarke
trapped
unexpected
activist
questioning
shortage
Players
Kashmir
chart
till
accomplished
cream
â
Newcastle
Athens
devastating
transit
administrators
discussing
Dell
favorites
Design
Roman
Portugal
Thanksgiving
Sprint
Stuart
EPA
Much
produces
favorable
grab
boyfriend
History
Hockey
comply
priorities
Change
F.
height
Putin
Marcus
brilliant
nose
Twins
turnover
senators
architecture
tying
shirts
shoppers
cargo
perfectly
Chuck
lawsuits
Samsung
Glenn
costly
consent
declining
guitar
O'Brien
Phase
completing
trades
Residents
Profile
Thai
excluding
speakers
goalkeeper
bids
offenders
Election
lesson
safely
mandate
snapped
chamber
spin
announces
dealer
bulk
evaluate
Ramirez
Fourth
trademarks
stone
Barnes
Nation
GMT
mess
focuses
Abdul
Falcons
Arnold
array
rice
computing
FOR
photographs
MVP
branches
ignored
mainstream
tourist
diesel
Mission
achievements
solely
trick
pilots
receives
booked
sections
locally
Property
steal
pointing
sporting
measured
Sanchez
timely
Banks
Rams
Use
negotiate
highs
contributing
Storm
balanced
Eagle
visible
titled
inspection
skill
investigated
Katie
surrounded
laps
sky
generations
wrapped
finger
muscle
fighter
Universal
radical
scorer
outlets
examine
instant
scholarship
disclosure
audiences
budgets
H.
treatments
Anna
Jazz
physically
Operations
debris
coastal
Alberta
EDT
somehow
ballots
en
math
Vermont
storms
Colin
airports
Superintendent
Agreement
loud
YouTube
everyday
compound
Engineering
commenting
framework
slated
Student
Hispanic
P.
Arthur
pocket
acceptance
literally
administrator
Albert
fundraising
charging
checking
negotiating
Queensland
visual
trash
currencies
Interstate
babies
trophy
bombings
accepting
enterprises
Race
boosted
sued
locker
Boy
stance
Shane
grades
L
displays
villages
Tommy
Joint
tap
formation
indictment
withdraw
workforce
Oak
Veterans
oppose
restricted
illegally
Nathan
Access
responsibilities
D'
toys
strange
Room
bottle
placing
Canadians
formally
Favre
Broncos
arguing
thrilled
partially
instruments
Pierce
slip
physicians
Ronald
borders
knock
scope
capped
Military
depression
slight
tender
Coleman
existence
subsidiaries
Sciences
witnessed
buyer
identification
Investor
Nothing
fed
aging
Jeffrey
Rachel
Bear
lock
editorial
fines
sophisticated
divisions
Cheney
Morning
incentive
Midwest
waves
Quebec
None
greenhouse
drought
Magazine
Euro
Representatives
Which
headlines
Hundreds
demonstration
catches
replay
Mail
principle
assisted
unfair
commodities
Celtics
smooth
Luis
ocean
impose
outbreak
workshop
oriented
Things
filling
Riley
goalie
Along
liabilities
gray
MPs
soul
tactics
replied
Robin
Crawford
infected
northeast
passage
UCLA
Villa
donors
knife
span
Coalition
reductions
Vista
difficulty
lets
discipline
Share
uncertain
battling
overhaul
Greater
governance
segments
Store
burn
laugh
Holy
march
divorce
temporarily
responses
collecting
Cruz
finale
diversity
rank
spectrum
encounter
Source
Medicaid
excitement
hell
flowers
mini
tournaments
wet
Nicole
hybrid
scoreless
tenure
prizes
c
Minneapolis
Cost
hometown
responding
gym
Ghana
licensing
strip
mall
strongest
unbeaten
dreams
Reagan
offenses
Schwarzenegger
Common
exceptional
stunning
Eddie
reliance
suggestions
rid
interface
Training
triggered
torture
foster
Box
institutional
blaze
formula
chronic
Left
examination
Parks
Heritage
Page
pursuing
Cal
Patrol
killings
description
Bruins
Lebanese
occupied
Brooklyn
Ill.
Northeast
overwhelming
Hot
viewing
insight
>>
borrowing
remembered
Harbor
Brent
duo
Thank
exists
sand
productive
crowds
Linux
Hart
Yesterday
Spencer
musicians
mandatory
freeze
servers
awaiting
Le
acceptable
prevented
anticipate
slowed
weaker
edged
Growth
superintendent
executed
Joel
mate
neutral
DJ
newest
provinces
occasions
fined
explosive
Remember
Merrill
dying
pressures
lone
nurse
intersection
praise
satisfaction
warnings
moon
breach
Meeting
repairs
Marines
default
declines
BJP
Current
impression
Hernandez
accommodate
cat
indicators
generating
spectacular
Saint
Xbox
heritage
EBITDA
commerce
arriving
Bristol
restored
jurors
prestigious
tune
catching
Commercial
Details
suspicion
closest
rises
torn
ancient
frustration
disappeared
grocery
Cuban
appealed
ounce
suspicious
Mich.
fiber
meaningful
Nobody
profitability
establishing
Defence
Fish
import
advocate
discover
##/##/##
thick
UAE
Healthcare
slowdown
Ball
physician
rankings
surely
Julie
motivated
wars
shore
urge
radiation
brown
Idol
iPad
communicate
Speedway
eggs
farms
Palmer
commitments
Rod
Travis
lasted
Eight
attributed
explanation
convenience
cautious
Challenge
utilities
Andre
maintains
Intelligence
caution
seemingly
Trading
Jacksonville
recycling
voluntary
parked
gender
joins
slump
Environment
flash
aviation
jazz
tensions
finances
evil
Lynn
Interest
Salt
G.
NL
safer
legally
subscription
painful
catcher
Vincent
Triple
odd
sisters
Holmes
Owens
internationally
considers
sentencing
unity
casualties
wise
matching
lanes
##ers
Android
achieving
dining
vessel
describes
emerge
Sierra
Mother
manages
hide
grateful
exploded
Estate
crops
suburban
offseason
donate
contemporary
Strip
king
jailed
teenage
tables
accounted
motorcycle
rotation
crown
mails
gate
Marie
Records
Hezbollah
expression
frozen
blown
partnerships
Holland
tower
referee
Conservative
Kenny
Reynolds
humor
intensive
cattle
mothers
Cisco
pose
Griffin
notified
distribute
Christians
sing
Castro
teenagers
destroy
fueled
Curtis
wholly
warrants
tours
Petroleum
drafted
Romney
preventing
convince
nurses
Quinn
regarded
Chapter
Bernard
Monroe
surged
valid
laptop
trio
fights
grandchildren
usage
voices
silent
burst
understands
showcase
excessive
bearing
Lucas
philosophy
doubts
NOT
electoral
demonstrations
wholesale
proceed
conversations
prayer
cruise
coached
Study
oversight
desk
treating
Late
reviewing
browser
Prize
approaches
examples
blocking
Zone
medication
whenever
accordance
Edmonton
underway
engagement
businessman
counting
kicks
Forces
Rather
implementing
Qatar
fortunate
examined
joy
combine
Abdullah
bats
respondents
Bernanke
ethics
Studies
blind
guarantees
Earnings
Gallery
T.
Future
IMF
beliefs
m
shake
certification
disappointment
shutout
Nine
cheese
Off
helicopters
affects
Salem
majors
desktop
median
Code
pledge
prohibited
compare
surplus
treaty
disorder
chocolate
volatile
Search
criminals
choosing
refugees
youngest
projections
flows
birdie
Marion
appearing
Dec
Sachs
Play
importantly
Risk
Telecom
Bible
Islands
dependent
ambulance
hearts
vegetables
Would
employs
consists
alarm
tire
PTI
Tamil
wishes
Oct
grid
disclose
sealed
digit
rehabilitation
Smart
Reporter
slowing
polling
struggles
Somalia
deserves
defenseman
Average
Emily
patterns
strict
dies
GE
Posted
Raymond
Urban
3G
enrollment
alternatives
confirmation
dated
ski
Colombia
Tracy
incumbent
Electronics
careers
Story
Wyoming
ambitious
trailed
Norman
amended
Kumar
Retail
unfortunate
spreading
taxpayer
opposing
batters
stepping
explosives
compelling
salt
Managing
wheat
bullpen
Darren
scrutiny
ignore
interception
stakes
Knights
peers
Cohen
gallery
aide
Easter
flames
tear
Around
Webb
lands
Jacob
curb
Benjamin
W
dust
advances
Holiday
exclusively
appreciation
convert
counted
scared
protein
wounds
Owen
yields
Walsh
assumed
tale
Royals
terminal
magic
helpful
Boulevard
Feb
Thousands
technique
cautioned
medals
wells
Titans
figured
spiritual
threaten
screens
Burns
orange
graduates
silence
shy
draws
Record
Within
evacuated
bitter
poised
stealing
avoided
controlling
Equity
Darfur
wrestling
Snow
battles
tanks
Chile
Cricket
substantially
Wildlife
ingredients
lobby
Oliver
collision
logo
Girl
exceed
arrangement
Carol
magnitude
##/##/####
reminded
Lehman
Swedish
Glen
Tenn.
organizing
Richards
drops
PR
lowered
vessels
herein
spell
vendor
Potter
Reporting
Congressional
Discovery
Heights
scientist
movements
appreciated
Foods
approaching
wealthy
condemned
severely
detainees
ally
applicable
jewelry
southeast
jumping
webcast
painted
harsh
excellence
Jesse
awesome
v.
Shaw
chat
globally
accusations
Hunt
script
environments
isolated
Jenkins
Mid
enthusiasm
occupation
southwest
Fargo
resign
supplied
recalls
FIFA
viable
Manuel
zones
midway
Homeland
Rays
Harvey
Perez
mere
bidding
.##
effectiveness
speeds
FA
laboratory
bonuses
interceptions
venues
Globe
foreclosure
Vatican
genetic
kidnapping
implications
corporation
fare
Palace
chairs
devoted
economics
Del
pitchers
Seoul
commentary
Thus
lasting
Master
loyal
Run
v
contests
Costa
Trophy
spotlight
posed
Moreover
observers
app
hung
twin
Wings
genuine
staged
Travel
printed
fails
wondering
comic
Nov
Whatever
th
politician
intensity
snap
Moss
Nadal
panels
FirstCall
endorsed
b
interaction
exchanges
removing
lengthy
barrier
traditionally
hiding
Yeah
Computer
favored
credibility
searched
substitute
counseling
milestone
bounced
immune
rebuild
Virgin
reserved
Therefore
trademark
realistic
Newton
graduation
retiring
Adrian
metals
Users
entries
portable
Deutsche
trigger
Tonight
Theater
totaling
breath
Professional
Lindsay
mentally
inspiration
postponed
Rockies
tuition
PA
Works
joke
Dublin
shipments
marine
Product
liquid
Venture
Porter
missions
Celtic
clashes
EUR
premiere
Woman
Visit
ton
object
Ricky
revolution
Emirates
Working
absolute
Nationals
initiated
sleeping
indicating
publish
Biden
bullet
alike
sooner
sweeping
finishes
legendary
jobless
Gross
constitute
Trail
wicket
payroll
notion
Flyers
dedication
Springfield
optimism
Father
gallons
mystery
hop
Sport
placement
semifinal
adverse
remainder
recruit
Resort
positioned
fielder
facilitate
pink
invitation
Belgium
Performance
toxic
rescued
reflecting
consolidated
spaces
generous
legend
cope
dividends
Victor
Never
craft
courtroom
Norway
keeper
IS
Lakes
strikeouts
missiles
sum
Shell
Death
Fernando
financially
McCarthy
Side
classified
Rochester
chaos
pressing
Fitch
Order
Shawn
nowhere
Ahmadinejad
reply
Advanced
slower
#-###-###-####
agrees
expenditures
Amazon
dose
releasing
bottles
Lloyd
Andrews
payable
grave
schemes
motorists
Crime
leak
Bolton
deserved
publicity
prospective
mosque
subsidies
youngsters
Meyer
pure
drunk
boxing
testify
grandmother
Huskies
applying
Austria
plug
crowded
breathing
Lower
Syracuse
OR
pursuit
journal
concentrate
Parents
ray
sustain
bass
Transport
instructions
Kuwait
seal
reveals
Sarkozy
Capt.
Inn
adjustments
indicted
gradually
engaging
logged
Analysis
wickets
swine
appealing
ST
Karzai
Ambassador
violating
conjunction
consolidation
bronze
denies
feeding
Vick
vacant
BMW
pastor
la
organize
precious
turmoil
packaging
aggravated
urgent
pot
experiencing
bounce
pressed
Temple
flags
Lance
Patterson
contacts
mound
spare
Almost
desert
deer
Target
starring
crackdown
successor
bowling
Case
Muhammad
Amanda
Reading
tasks
Margaret
credited
betting
influential
Gilbert
Founded
Burton
automaker
researcher
Prices
forgotten
technological
overs
Cambridge
functionality
hospitalized
pronounced
specialized
certificate
advisor
cease
designers
Browns
entities
frustrating
disputed
briefing
inaugural
It'sa
dirt
Freddie
refer
compiled
Fi
stays
trails
varsity
Senators
Mall
landmark
tension
golden
Puerto
Moody
identifying
Partnership
Animal
stomach
ACC
Nepal
hardest
domain
legislature
Soccer
printing
Leonard
clerk
reluctant
layoffs
Samuel
acknowledge
hub
seasonal
violate
Fall
strengthening
jumper
dirty
barriers
premiums
bread
reaches
matchup
lender
#.##pm
pipe
5th
performers
Motorola
Litigation
adventure
coup
layup
sometime
permitted
Century
Political
radar
reject
Dixon
advisers
conservatives
outing
Kenneth
fame
Anti
Gibbs
branded
mountains
Albany
Aviation
directions
Timothy
softball
refuse
leagues
Hayes
reliability
stored
transparency
evident
differently
mill
Guy
sizes
township
Pierre
Technical
suits
panic
Inter
graphics
processor
insurers
entity
Base
hungry
consultation
aides
contention
lottery
Shannon
committees
tragic
mechanism
Jail
Amendment
incredibly
sends
naturally
Basketball
Burke
renowned
gunmen
Lauren
kicking
upside
guided
Ralph
composite
Front
bears
miners
enhancing
ON
Eve
Tourism
Worth
strategist
emphasized
steals
Survey
tissue
rains
Syrian
Angel
Centers
Mario
confusion
clearing
Marlins
<
inner
arranged
Gregory
shaped
advocacy
develops
Davies
theaters
Rafael
Pitt
encourages
reiterated
Baby
Dolphins
Sharks
Grace
drag
plunged
loving
Sanders
explaining
Asset
perception
invisible
Cable
Mariners
clinics
pregnancy
sorts
Bahrain
turnaround
icon
Morrison
mad
Due
Davidson
Beckham
Campaign
GPS
K.
burglary
minus
shipped
intelligent
raced
launches
embassy
Dodge
battled
veto
Serbia
adjust
teeth
founding
Million
eBay
eliminating
root
Sure
conflicts
ethanol
Jays
embrace
Myanmar
Yemen
MTV
intentions
d
relation
accelerate
Casino
unanimously
Aug
declaration
Continued
midfield
counterparts
Dance
Carson
skilled
Diamond
define
openly
integrate
Twenty
educate
outfit
hamstring
Nintendo
excuse
Branch
Mubarak
Embassy
Hornets
outlined
receivers
FC
turnout
homicide
brutal
Come
breakthrough
aluminum
Israelis
lung
prompting
Omar
Barclays
trafficking
Prix
Quality
triumph
COMTEX
Nigerian
charts
Was
Lowe
Sound
EST
AIG
Kirk
Nobel
oral
Knicks
anxiety
separated
sacks
Md.
surprisingly
celebrities
Dunn
apiece
vary
elaborate
reconstruction
Minn.
refusing
Karl
Days
invite
Greene
copyright
Daniels
Mahmoud
sentences
displaced
rebuilding
Libyan
obesity
sidelines
Redskins
Floyd
Rescue
cats
Angela
Shore
homered
OS
Ga.
Wi
Willie
dairy
floods
Robertson
youths
Stephanie
worthy
shame
Durham
Fans
Rivers
Could
mature
representation
educated
sounded
Cougars
Denmark
Geneva
diamond
Nicholas
Wimbledon
H#N#
slid
Half
elbow
bomber
occasionally
apartments
Conn.
securing
putt
enemies
shortstop
ought
endorsement
random
objects
seeds
aggressively
NSW
Mugabe
presidents
universal
parole
weighed
hostile
lifting
Hopkins
subsequently
O'Neal
imaging
sore
Captain
Says
assurance
meantime
Prevention
supportive
insurgency
Living
ports
surveys
Opposition
Season
telecom
Jobs
entertaining
vocal
competitor
AAA
stabbed
freed
cornerback
Add
advantages
SmarTrend
introducing
Mohammad
climbing
stupid
fuels
Guantanamo
deploy
garbage
bridges
ANI
finalists
jurisdiction
Banking
inevitable
liable
benefited
CHICAGO
colored
Nature
episodes
Suite
fantasy
anonymous
trailing
quietly
notify
applicants
concessions
prayers
pinch
columnist
racist
diplomats
volleyball
Term
Consumers
willingness
Customers
shifted
fits
commonly
Rocky
Criminal
Plaza
perceived
biological
Nikkei
Sr.
Operation
mild
Traffic
UBS
Ice
complain
OPEC
merchandise
fireworks
defenders
x
Armed
Newman
minimal
PowerRating
fingers
infections
ceiling
steep
indoor
Padres
Stay
##.###
inspectors
reads
factories
Gay
Help
Low
holdings
mounted
distributor
Between
besides
marking
courage
Islamabad
mineral
Anaheim
Mo.
peer
bilateral
Elliott
mines
gonna
tunnel
Appeals
remind
foreigners
recognizes
adjacent
harbor
presenting
unrest
SUV
damaging
swim
rider
Miles
fulfill
switched
bold
JP
imported
Formula
Too
inventories
plain
Corey
Hey
argues
Restaurant
weigh
Flight
affiliates
volatility
Register
Ducks
Oxford
exceeded
deck
lobbying
Citizens
dubbed
implied
suggestion
accessories
continuous
Benedict
horror
recruitment
affiliate
Shah
disputes
firmly
Cairo
workplace
cook
Rooney
manufacture
locals
Chancellor
Gore
risky
Dollar
Province
shifts
reservations
loyalty
Astros
conscious
simultaneously
quest
rubber
Leeds
curriculum
continent
Advisory
punch
Chargers
Christine
Charleston
dumped
Email
woes
Matthews
Brussels
wrist
Pradesh
Experts
Nissan
punt
reconciliation
heels
troubles
conclude
Hampton
Brewers
fierce
emotions
bathroom
Zach
Haven
populations
diving
Member
unnecessary
evolution
Logan
accusing
coupled
Worldwide
Arlington
pleasure
Cardinal
harvest
apologized
Xinhua
Command
IPO
Chen
skipper
destinations
transported
ugly
opted
holder
issuing
outcomes
Strategic
Suns
Funeral
subscribe
flooded
farming
Polish
settlements
Going
supervisor
beneath
downs
ripped
abused
upgraded
automated
rides
Cavaliers
institute
cubic
accomplish
Penguins
Bird
Moon
unacceptable
farmer
Riverside
significance
nominations
loses
exploring
islands
Nixon
violates
Weekly
AA
lately
Cold
disability
homeland
celebrations
detectives
Ruth
Round
Legal
misdemeanor
Think
expired
atop
setback
d'
Higher
mln
tally
stalled
Registration
undergo
cry
debts
Nash
centered
Doctors
accountability
Purdue
Battle
pets
Helen
basement
trusted
advertisers
messaging
summary
owed
magazines
Mining
toy
Hartford
hill
affiliated
Rhode
worn
Talk
constructed
Col.
shootout
ace
psychological
petroleum
fundraiser
chasing
inability
conceded
ore
unfortunately
accountable
Ariz.
convenient
Torres
Champion
concerts
arrives
enjoys
FM
Together
grain
Pistons
Pelosi
Ravens
Writers
Gardner
boundaries
disc
UC
unemployed
Mass
declare
Municipal
brokerage
devastated
rocks
Donovan
slammed
paintings
enrolled
Li
Wang
ridiculous
tossed
enforce
Recreation
ear
amongst
negotiated
chef
possibilities
caps
beneficial
inform
beds
assessed
AC
Rapids
Coming
romantic
memorable
Server
Strong
specialists
restoration
Orioles
Wire
manufactured
Wolf
Uganda
decides
Chevrolet
delete
Jamaica
Gene
bacteria
Mortgage
cousin
Learning
impacts
Wash.
Bills
Pharmaceuticals
competed
Leon
NFC
conferences
courtesy
advancing
comprised
kidnapped
retained
spark
steadily
Better
investigator
structural
reminder
frequency
TORONTO
Iron
mounting
Voice
IRS
Osama
Brisbane
calculated
NEWS
sellers
pants
spends
habits
sheets
Methodist
concentration
Gerald
Johnston
bloody
sponsorship
disposal
Wii
Furthermore
Dana
governmental
Silva
Fortune
Kosovo
lows
immigrant
hostage
justify
entrepreneurs
Making
strained
poorly
react
grandfather
tops
Principal
Hurricanes
Kabul
chains
supporter
soaring
crunch
recipients
Disease
oversee
FTSE
Link
Researchers
generic
fax
·
bureau
roadside
instrument
lucrative
Getting
collections
experiment
Sue
Inside
Upper
flown
gene
Snyder
Kurt
haul
apology
Statistics
jointly
Castle
photographer
ultra
erupted
occurs
mailed
Alzheimer
conditioning
planted
wooden
IANS
Mercedes
communist
stating
olds
Conservation
berth
televised
Miguel
expectation
Bee
jersey
partial
evacuation
Leading
progressive
Starting
notable
Kathy
borrowers
beats
grows
passionate
stranded
averages
Independence
Airbus
---
Guide
LP
dig
Megan
juvenile
visibility
blogs
Freeman
Melissa
dressing
describing
cake
cleanup
maximize
amendments
BlackBerry
undergoing
USB
languages
maps
laying
polled
cooperate
bite
rig
belong
Age
awful
outsourcing
Ban
practicing
Wake
upgrades
aiming
minded
Dead
Jacobs
motivation
royal
transform
assignment
labels
Metropolitan
boosting
Trevor
Wagner
reliever
tropical
detection
EPS
preview
turf
Heather
journalism
Crystal
impacted
efficiently
failures
Pearl
connecting
elimination
logistics
slam
weekends
Flash
Slam
Glasgow
forthcoming
warehouse
Berkeley
Janet
Clay
deficits
halted
QB
finalized
shoulders
Mickelson
dragged
Kurdish
subscriber
kickoff
sewer
Production
Stern
Revolution
dip
midst
Rico
chemistry
aired
greeted
persuade
Sign
Copyright
campaigning
determining
thereby
shorter
lakh
Bradford
marathon
confidential
Welsh
batteries
Edinburgh
proportion
execute
publications
tier
cement
Mars
Clemens
egg
Indonesian
recreation
½
shadow
workshops
Garrett
privilege
bones
mechanical
Expo
Tata
strengths
compact
limiting
flowing
pin
acquiring
Pac
heroes
Majority
preparations
adjustment
bargain
embedded
iTunes
Canyon
watchdog
Said
teaches
Scientists
protective
Premiership
regret
colleague
Stop
Taking
exam
AMD
sank
forming
dangers
aftermath
scholarships
scattered
True
bullish
warn
Spears
relate
winger
Dhabi
harassment
Critics
Recently
wrap
applies
gauge
kidney
specializes
Win
stripped
transformation
MS
crying
phenomenon
Gandhi
Empire
hook
Comcast
diagnosis
«
priest
Trojans
apologize
followers
Solar
Joey
donor
hunger
hurdles
Has
grounded
Philippine
suburb
shifting
Continental
friendship
streaming
Hoffman
Vladimir
origin
stint
terrific
contrary
corners
casual
Andrea
Doyle
bargaining
Boyd
environmentally
murdered
Chart
predecessor
bogey
Initiative
keys
Sheikh
succeeded
Blagojevich
upward
Mar
Blvd
Brand
insist
withdrew
blowing
colorful
Blood
searches
scary
resumed
nominees
musician
connectivity
Fifth
troop
consultants
contender
Willis
SAP
Tower
Stores
easing
counterpart
Carr
cooling
scare
Beverly
insurer
Simmons
regain
Vernon
ramp
AFC
relieved
Catherine
Resource
Arroyo
memo
relied
premises
inspector
medications
##.##.##
Spirit
publishers
Border
birdies
Vince
Providence
albums
Telegraph
vs
Sadr
layer
discounts
combines
undefeated
toughest
rallies
amateur
Ala.
decisive
Diana
citizenship
seminar
I'ma
artistic
VA
Interactive
extends
Opera
NHS
Finland
stretched
notably
sidelined
Cody
sideline
Course
monitors
twenty
multimedia
enrichment
nutrition
courthouse
Investments
Tel
Portsmouth
mud
Julia
Parish
Give
indicator
Start
crashes
academy
jets
Sheffield
Rebecca
soared
Valentine
Mae
RSS
holy
Tucson
visa
literature
Set
talents
Wolves
confused
ladies
Wis.
robbed
dominate
superb
editors
AOL
Thunder
patience
medicines
competitions
thanked
stunned
shootings
smell
reduces
beaches
Cloud
minimize
oxygen
anytime
shortfall
refinery
equities
influenced
screaming
Punjab
civic
Ind.
Colo.
BCS
subprime
tumor
Crosby
Halloween
transparent
tee
Plant
header
patch
patents
Nets
Barrett
demonstrates
Rockets
ICC
Gadhafi
modified
Clean
aggregate
wisdom
Lou
profession
employ
podium
Less
injection
anchor
flavor
centuries
regulator
opt
governors
zoning
critic
PLC
appetite
unidentified
automakers
remembers
halfway
cigarette
Maliki
MA
sticking
Fletcher
floating
detected
styles
demonstrators
pupils
Communist
Wind
Jackie
freshmen
humanity
lawn
7th
pray
correspondent
committing
anxious
Beth
handing
Martha
liquor
Ferrari
undertake
Demand
refrain
Everton
heated
dental
instruction
historically
acute
Earl
Partner
weakened
infant
piano
railway
Homes
Auckland
visitor
speeding
commissioned
stakeholders
dioxide
consortium
detect
relaxed
Schmidt
Olmert
caring
Bull
Spartans
charities
Clemson
pork
ousted
hitters
Donna
Bangalore
Card
questionable
taxi
hurting
bubble
Electronic
Block
carpet
weighing
inquiries
presentations
contracted
signatures
Georgetown
et
envoy
abilities
pence
travels
Newport
Tri
PCs
showdown
pact
Nevertheless
Diane
Nuclear
Patricia
swap
9th
Bangkok
Direct
Edition
wheels
p
Daytona
Rivera
phrase
lesser
Release
newsletter
Plans
Christie
Hood
associates
tenants
bout
Berry
g
caliber
Movement
lawmaker
wherever
amortization
partisan
Tucker
unlawful
disasters
Walk
Sara
disagree
Enforcement
FCC
supervision
steam
fiction
flagship
anticipates
quote
corresponding
architect
tipped
Shaun
graphic
console
offender
considerably
desperately
booth
proving
oversees
Soon
Augusta
credible
outfielder
Dog
recipient
casinos
Wellington
bolster
complaining
shelters
strokes
Beck
Yale
Nicolas
Windsor
assassination
Ask
Info
underwent
IV
prisoner
Mt
interference
Newark
rolls
appointments
shook
Aid
butter
fortune
analyze
Norfolk
Recent
attracting
Princeton
ie
labeled
cigarettes
brokers
Nationwide
6th
rivalry
suited
voiced
Mercantile
avoiding
runway
eventual
Bad
Ky.
assaulted
Sandy
mainland
banner
alerts
Save
shocking
O'Connor
Invitational
Studio
leather
Leadership
Employees
awaited
contend
rhythm
FRANCISCO
inspections
Depot
Holding
afterward
closes
knocking
separation
grip
Seahawks
HR
celebrates
Years
Teachers
beloved
rivers
bull
allocated
creditors
Alert
Grade
predictions
Raleigh
satisfy
Tea
rockets
wondered
commanders
recipe
workout
clip
Ivan
locate
inclusion
Peru
##-#-#
promotional
occasional
Task
O'Neill
Beyond
unbelievable
denying
valuation
liter
routinely
Abbott
assure
cancel
Manny
abandon
plagued
Rush
folk
Meet
dishes
Bucks
Farmers
Leslie
cotton
#,###.#
Americas
Plc
switching
attendees
buzz
rehab
unhappy
Cola
pizza
administered
rhetoric
Thornton
jacket
semiconductor
Northwestern
laser
Competition
recruited
poker
Fresno
Choice
borrow
Ex
LCD
ounces
Nate
builds
disorders
warns
expenditure
poured
Chester
trader
Lost
strictly
whereas
boot
Congo
Merck
Dayton
Clinic
regulated
helmet
gunman
naked
sustainability
Phelps
Boise
contenders
enters
trauma
Mine
Netanyahu
diplomat
Downtown
upbeat
Shop
eased
Update
refusal
reactor
emotion
8th
schedules
Immigration
Maple
Funds
Mavericks
Chapel
settings
Civic
appliances
horrible
barred
navigation
Ellen
expire
broadcasting
Sandra
candy
raids
Firefighters
Ham
Bengals
laughing
Joshua
skeptical
pockets
Mitch
accessed
VP
semester
liver
Pyongyang
disabilities
boasts
glory
Fitzgerald
fragile
Presidential
quotes
Romania
AJ
abusive
distinct
joked
posters
fold
Supply
undermine
pile
combining
blasts
plates
contents
seller
ECB
confrontation
Eugene
WHO
Ortiz
renovation
Joyce
Fine
twist
cure
Guardian
Level
bay
studios
critically
Fast
Ryder
stockholders
united
revenge
Rudd
utilize
scan
acid
withdrawn
opera
touring
limitations
Noble
tornado
cheer
Deal
corrupt
dawn
sworn
catalog
stamp
evaluated
brick
Gardens
Rugby
dial
tribunal
Munich
Trinity
bipartisan
Hicks
Focus
rewards
instantly
supermarket
sake
permanently
charitable
Nolan
sacked
convictions
smiling
bankers
inmate
parallel
Weber
Prosecutor
pope
Tulsa
shell
UPDATE
dish
casting
Tennis
Phone
overturned
wasted
JPMorgan
tent
divide
Learn
ears
exercises
deferred
Evan
Nazi
apps
Properties
Clearly
borough
Fannie
assuming
complications
likelihood
juice
countless
floors
Monica
Blackburn
quarterfinals
pursuant
directing
outreach
addiction
downside
worship
container
info
cow
Joan
embarrassing
recommends
Reyes
sang
instructor
lowering
needing
Cedar
steroids
Australians
processed
uncle
suspend
animated
HSBC
Bobcats
separately
territories
fumble
optical
shooter
Enterprises
Dream
pan
Monetary
alleges
Peters
Yankee
classrooms
lacking
Judy
advise
shortages
blend
evaluating
Double
Had
improves
downward
incorporated
lacked
Lexington
Alice
passport
contaminated
Tell
Tyson
fitting
Diaz
speeches
Baylor
cinema
Fatah
Movie
boycott
Coca
machinery
distant
refugee
powder
lit
MySpace
Happy
Basic
associations
Excluding
resistant
Ahmad
extremists
heavyweight
genes
transformed
inspire
trustees
Mercury
A###
sauce
quarterbacks
UPI
Harrington
elevated
Betty
Ore.
convincing
bachelor
thorough
Tottenham
Walt
Cities
Jacques
Vision
lyrics
Wizards
retreat
freezing
defeating
Apparently
Fraser
Secret
orientation
fixing
Circle
dam
intact
distributors
correctly
spy
successive
Des
Unless
editing
shelves
Fashion
certificates
Rumsfeld
Councilman
Malaysian
Am
Toledo
policemen
revive
characteristics
thoroughly
instances
petrol
exempt
gates
manual
weird
tribe
themes
Pictures
Sweet
Charter
mirror
Carey
Loss
Throughout
buys
fever
nerve
Climate
militia
Very
dump
Omaha
Recovery
murders
Bulgaria
Rookie
Behind
scrap
smashed
Mohamed
Gazette
ceremonies
outright
Rutgers
iconic
Someone
Tree
metro
Hard
Kathleen
Primary
steering
Pre
functional
Luther
incomes
accompanying
allocation
protocol
universe
Families
announcements
unlimited
Number
Chronicle
paperwork
Jennings
healing
plaintiffs
Hu
woods
enthusiastic
processors
buyout
finest
autopsy
groin
Whitney
monitored
creativity
Somali
obtaining
prepares
curve
precise
repay
coordinated
Manufacturing
performer
spray
costing
linking
toss
Princess
jokes
attraction
dipped
reversed
strengthened
Hannah
alter
Yahoo!
Marco
pub
contingent
containers
Cabrera
Preston
Certainly
interpretation
libraries
imminent
merit
Conservatives
scam
affidavit
photography
VoIP
lineman
Dylan
lovely
revise
drilled
expressions
precisely
incoming
filming
Sale
AFL
assembled
Track
listened
Olson
levy
Click
practiced
Chandler
recreational
Images
belonging
municipalities
absent
Courtney
accomplishments
Hansen
clearance
pirates
identical
expressing
capitalize
genre
Islanders
flip
Upon
Vodafone
belongs
touching
transplant
Sterling
contested
confronted
Outlook
rounded
recruits
Athletics
inadequate
bias
poster
Hungary
obstacles
Clayton
Detective
Vienna
pharmacy
cellular
overhead
Born
pensions
Giuliani
battered
rings
athletics
Wendy
Maj.
enacted
disciplinary
exemption
leaked
bleeding
Hassan
Consulting
brush
o
transfers
highways
gangs
analyzed
scratch
Pine
ETF
kit
yelling
bloc
crushed
Clippers
hailed
Leaders
freestyle
shaking
####.##
Peninsula
hospitality
freely
objectionable
derived
teamed
suburbs
DAVID
binding
narrowly
washed
blacks
disturbing
CDC
brave
Re
wash
JD
hikes
Playing
ordering
nightmare
Perkins
Month
bust
forests
Customs
handset
it'sa
marry
abuses
offs
prone
relax
welcomes
Investigation
©
Readers
forwards
Already
accelerated
amounted
altogether
glasses
insights
independently
habitat
bother
artificial
Profit
Damon
tracked
YOU
railroad
consistency
Mill
worrying
fishermen
Find
photograph
Hours
quicker
Weaver
harmful
threatens
jeans
Representative
Klein
economically
favors
kindergarten
gases
Brunswick
backyard
observations
credentials
migration
Sanford
tags
controller
reflection
Stakes
outscored
Twin
Commons
Sugar
uncomfortable
examining
valley
Nuggets
clicking
billing
poses
customized
incurred
instrumental
misleading
streams
midday
breakdown
Hull
complement
Gomez
freight
Gonzales
ranch
Holocaust
Safe
preference
Jo
wings
endangered
giants
Statements
angle
surgical
proves
supplement
Edge
tightening
cops
Johannesburg
Webster
Suzuki
slim
racism
Tibet
embraced
Danish
Event
serial
Ranch
misconduct
Indies
Arctic
sovereign
wounding
documentation
tolerance
adapt
chiefs
solicitation
JOHN
Frederick
bell
Trent
planting
predicts
drunken
interact
Bend
lovers
prisons
Official
CPI
Petersburg
compares
Heath
Hotels
genocide
convoy
Kingston
rifle
regulate
penny
composed
duration
beta
hunters
Brendan
surrendered
appoint
footprint
Cardiff
analyzes
Hewitt
Pfizer
bicycle
justified
dancers
Lafayette
agreeing
unanimous
Baldwin
tumbled
raped
Culture
lining
epic
cycling
prosperity
Manila
Julian
diversified
Motion
ammunition
Model
dependence
ambitions
Campus
boots
Nielsen
bosses
Pedro
Islamist
Santos
incorporate
Claire
revolutionary
resist
mixture
Roddick
conclusions
Saturdays
Chapman
Byrd
dismissal
codes
ethical
standout
spirits
anticipation
Benson
mates
lacks
stabilize
characterized
fares
Ph.D.
mentor
superstar
Wars
injuring
Economics
lend
PlayStation
Chambers
livestock
Kay
trim
Robbie
Months
undisclosed
Events
shoe
cemetery
netted
niche
Reader
dignity
Outside
secrets
tends
lightning
measuring
Something
broadcaster
arise
tail
infield
functioning
alternate
Parkway
Perth
toe
Yellow
wary
meltdown
graders
Sources
dismiss
persistent
circles
fruits
reckless
del
spite
assessments
Sundays
cholesterol
shelf
rebounded
occurring
UFC
PG
Grammy
undertaken
UConn
promotions
judged
wreck
proxy
Futures
Gators
portions
predicting
deliberately
organizer
purse
consuming
Erik
accommodation
Mayo
unified
Adobe
expires
documented
rode
apparel
revealing
indications
Marathon
Allison
Put
Java
LG
Rita
Silicon
Ibrahim
La.
tube
submission
compatible
fluid
Cunningham
signaled
maturity
Desert
Randolph
Broadcasting
Cats
timetable
portal
Native
assisting
Sex
Lightning
overwhelmed
habit
chased
verify
Fields
Canucks
fleeing
belonged
Article
encountered
Erin
alleging
Dustin
Personal
Speed
receipt
Cell
ext
du
Reliance
jam
Arabs
renew
zoo
sue
nationals
census
insider
hazardous
Victory
illnesses
relying
McCoy
Ground
Liz
wrongdoing
vaccines
surrender
salad
whilst
leaning
Engineers
bizarre
Self
blues
Indy
banning
doses
minorities
deliveries
flee
procurement
LeBron
throat
burns
^
Crude
IAEA
Plymouth
disruption
measurement
booking
squeeze
Georgian
airplane
paced
Opening
defenses
Winston
List
debates
intercepted
Blazers
Cemetery
batted
Merkel
Carpenter
Lindsey
Freshman
renewal
Foley
Dawn
Yang
towers
detective
constituents
Blu
confirms
pools
Lawmakers
Z
lethal
villagers
earliest
Prairie
Jared
Observer
upheld
therapeutic
performs
handles
Flames
definitive
destroying
Ended
logic
salmon
NH
Geoff
Liu
Galaxy
CT
Lutheran
Mesa
Want
installing
Visitors
Bhutto
healthier
Cruise
sticks
impairment
councilors
Portuguese
Nova
slash
touches
classical
curious
faithful
circulation
batter
Christina
reactions
fabric
Elsewhere
beverage
Kane
financed
leap
Customer
Dawson
Voters
discretion
UW
coordination
Studios
Johns
allowance
surviving
Hayden
insult
Harold
baskets
Job
Strauss
pills
councils
Texans
Actually
Sunderland
fundamentals
traditions
Rodgers
Milton
staffing
continually
Legion
lure
beside
qualifier
sectarian
temple
surgeon
syndrome
clubhouse
Far
Adelaide
eligibility
okay
bets
WWE
reopen
creator
Abraham
Wenger
approvals
Core
Roberto
Laboratory
Curry
digs
confessed
twins
concentrated
smuggling
Leafs
nasty
Madoff
relies
Palestine
ins
Emma
Rodham
Rural
tonne
unaware
Kobe
Reggie
LLP
Earnhardt
consumed
activated
limitation
Belgian
contestants
Fortunately
Britney
glove
believing
sovereignty
Hawkins
Yorkshire
Cliff
Sharp
Southeastern
spur
overseeing
Complex
spectators
informal
Siemens
Cindy
password
skies
qualities
bombers
doping
Rule
uniforms
clouds
pioneer
desired
THIS
cabin
Burlington
punished
Participants
promotes
Stan
yearly
Paso
Across
sciences
FREE
Paulson
Q1
shutdown
epidemic
Paterson
NO
AS
existed
objections
rewarded
spike
cultures
vibrant
UEFA
minors
blasted
sliding
bare
endorse
hurricanes
Offer
urges
Census
mobility
disappearance
graduating
Rules
naming
lecture
Dark
accurately
eve
Inspector
kilometer
fouled
Starbucks
ward
Relief
ferry
rebounding
Williamson
BHP
lighter
Lead
feat
acclaimed
Nichols
chipped
Analyst
Vietnamese
Cornell
tide
Evening
Saskatchewan
notices
Site
Schneider
pursued
tablet
Wichita
toilet
Copenhagen
#.#m
bullets
pornography
proposing
Caldwell
Madonna
Sept
grace
Paula
smallest
Neal
blessed
threshold
references
explosions
dean
Forbes
pumped
wines
Xavier
showers
glimpse
duck
imposing
owe
arbitration
propose
stiff
refers
outlet
treasurer
Large
knees
alerted
Reno
romance
consult
Phillip
evolved
fashioned
Norwegian
Gregg
pipes
Scientific
Allan
urgency
Marty
gardens
Song
motive
skating
pen
hottest
recognizing
CC
shower
refund
Malcolm
Few
Stage
Frankfurt
backdrop
leadoff
Books
secular
autumn
CFO
silly
ash
Innovation
concussion
Quick
Latino
soup
outrage
similarly
uncovered
Pink
Sutton
structured
mount
blessing
Word
Jill
probable
slashed
attackers
Alonso
sunny
parish
Lieberman
contamination
Derrick
Welcome
Coal
Chip
reasonably
manslaughter
declaring
queen
forums
tense
Holly
campuses
medalist
influenza
endless
Oprah
tapped
contributor
cop
Horizon
attributable
density
firearms
lean
albeit
merchants
notification
laptops
Admission
sprained
Debbie
customs
lifts
martial
insisting
Economists
smartphone
Close
Rodney
fraction
Ronaldo
heroin
priests
Previously
pandemic
BOSTON
Employment
concludes
Body
marched
Wine
Running
integral
Excellence
complexity
overcame
cooperative
mum
----
Pacers
repeal
Standards
afterwards
collaborative
Actor
Hindu
sheer
Basin
positively
Nor
Valencia
terrain
Value
prostate
retention
beans
premature
Mutual
plunge
Factors
Send
Pass
pad
Maurice
Medvedev
stuffed
Ever
regards
Jorge
growers
Eventually
revival
clips
Jackets
supervisors
gaps
distinction
hostages
dominance
nod
correction
Witnesses
Draft
Roosevelt
endured
firefighter
intentionally
patrons
profiles
wiped
restart
Aberdeen
IOC
stabbing
statute
twelve
Sherman
Economy
Explorer
Heavy
tackling
Gate
Rd
Teen
accord
FAA
Mom
Huckabee
Queens
sinking
pumping
ventures
exchanged
overweight
Assistance
Les
sink
explicit
Caroline
gesture
organ
Victorian
Brother
Consolidated
Naval
collar
sack
mouse
siblings
imagination
Pan
stones
dunk
successes
haven
aerospace
Creative
underneath
Cultural
sequence
manufactures
Volunteers
Organisation
worlds
ICE
sailing
Leo
shattered
Paper
exploit
der
Depression
booming
sampling
Dominican
alumni
clause
keyboard
Editing
Brewer
vertical
Patriot
shouted
commissions
echoed
Highland
makeup
laughed
profanity
equality
Gateway
builders
USDA
PowerRatings
Try
forensic
bln
whoever
Lyon
statue
Hank
McLaren
Clara
Samantha
leases
bans
naval
handgun
Morales
Fresh
debit
mice
BEIJING
breed
tallied
Revenues
#######
greens
depressed
poultry
concepts
Hardy
Sentinel
clinched
turkey
sensitivity
Frost
ensures
arguably
instructed
supposedly
automobile
pumps
Zoo
Buckeyes
outgoing
Adjusted
Gabriel
notorious
inter
solving
pivotal
Miss.
swinging
cleric
atomic
Either
confront
derivatives
watches
Strategy
Mediterranean
foreclosures
Hanson
Ethiopia
personalized
indexes
sensors
recipes
Join
FEMA
indigenous
possessions
Trump
logical
skip
Arabic
Apart
Payne
unrelated
adopting
Lohan
Finals
Norton
bikes
HBO
Grey
Symphony
males
metropolitan
challenger
Plains
runoff
congestion
Lawyers
dire
grams
stellar
seating
settling
\
voluntarily
additions
Lawson
resolutions
Composite
lively
Commissioners
TVs
honestly
Mitsubishi
forefront
Lancaster
stationed
Chemical
Sears
Singer
denial
decorated
specially
mandated
distinguished
Internal
pedestrian
Chair
Liberals
inherent
Similarly
unsuccessful
specializing
Everett
answering
calories
shine
accepts
Us
convertible
coat
varied
Ronnie
LED
Kelley
intervene
drills
feeds
F1
consisting
Statement
Azerbaijan
piracy
intimate
poetry
mailing
Hugh
translate
excluded
slaying
Horse
technically
continuously
op
ate
Seth
fixture
Automotive
verbal
attitudes
Follow
refuses
wheelchair
inception
leisure
Infrastructure
Pop
Kris
Rosa
Dodd
Ericsson
riot
Otherwise
Annan
sluggish
mask
constituency
restrict
starred
Arafat
+##
Teams
congressman
Natalie
Lodge
guitarist
billionaire
automation
looming
surfaced
Swift
drain
moratorium
Kazakhstan
educators
thriller
Historic
designing
Patients
trap
receptions
ours
Sioux
Devil
Shortly
reservation
Transit
cracked
Pack
Renault
Pride
Fuel
Shelby
Grizzlies
emails
reacted
infringement
preservation
ATLANTA
contributors
stemming
yeah
Mile
chemotherapy
construct
Elvis
mysterious
Knox
pie
lengths
GP
ditch
Faith
sexy
Dwight
seize
fancy
sympathy
issuance
Vanderbilt
Dad
Lankan
Coffee
exams
Cyprus
comprising
Bin
OTC
Rouge
touted
grader
cheering
Akron
CRM
collectively
corridor
Barber
bandwidth
Churchill
asylum
reopened
astronauts
surprises
Diamondbacks
Cheryl
Pearson
Rebels
Jenny
Honor
monster
Oilers
compounds
McConnell
cardiovascular
grandparents
demolition
Ventures
Buck
dominating
slots
WTO
RFID
###-#
respects
Administrator
competitiveness
nightclub
inspiring
finalist
cares
Panel
protections
soap
observe
rainfall
gloves
Oaks
Boulder
Wilmington
Katherine
treats
grief
Y
sights
scenarios
namely
Title
thermal
Prison
Bengal
Sudanese
columns
readily
Patel
thankful
imprisonment
listings
Return
unauthorized
Amsterdam
sided
demonstrating
cleaned
housed
Ethernet
practically
edit
inviting
reunion
clues
flies
Orchestra
Tory
solved
owning
Wachovia
elder
prompt
observation
prolonged
Facility
Flynn
Imagine
flawed
filmed
candidacy
Schwartz
Fiji
Picture
grandson
Chennai
NZ
isolation
themed
TOKYO
Correspondent
clay
exclude
Kandahar
heightened
Clear
respiratory
purely
Serena
Torre
Barton
RCMP
cooked
y
Huntington
patented
requesting
substances
accidentally
ink
fluctuations
rap
innovations
diplomacy
famed
Essex
distributing
undercover
Distribution
Commander
realizing
portfolios
Progress
em
Aston
Content
junk
undue
improper
depreciation
thumb
notebook
Bollywood
applause
diagnostic
micro
insurgent
Berlusconi
Rising
cleaner
standoff
Manmohan
firearm
Boone
Amber
stimulate
northeastern
evolving
Sophomore
frames
Exxon
vegetable
Programme
Florence
asthma
hurts
Jerome
bye
Historical
Levy
archive
Jaguars
cookies
Certain
Generation
##-###
Date
Brands
vintage
cardiac
nearest
Austrian
breeding
bothered
tribes
File
modeling
Got
~
positioning
Enron
clinch
modules
essence
MLS
borrowed
expose
Dancing
costume
Pay
setup
Modern
Raptors
Ivory
opposes
Wigan
replaces
Thirty
Walton
portrait
Appeal
Tests
suffers
promptly
Cherry
Kan.
digits
collided
oh
verge
Hugo
happiness
closures
whistle
tapes
weighted
SD
caucus
Erie
Bedford
singers
Steele
Deborah
exile
Rally
Marketwire
shouting
profound
biotechnology
precision
reigning
Mack
Chan
farther
Platform
specified
scheduling
punched
hydrogen
Pioneer
Applications
succession
savvy
Nextel
termination
Hyundai
broadly
tractor
dive
Tunisia
Winnipeg
royalty
Experience
disastrous
weaknesses
DVDs
BA
Wesley
IL
hills
fertilizer
framing
Gavin
propaganda
tentative
laughs
Venus
fascinating
reminds
blank
Trial
Marriott
strapped
NYC
Glass
miracle
yielded
lightly
Sharma
Berkshire
landfill
CDs
guilt
bowler
Ultimately
nickname
Conrad
ailing
washing
sprint
arc
restoring
BB
outdoors
Lines
Fairfield
subjected
trace
Name
allegation
Shareholders
Drake
Croatia
embarrassed
insufficient
Lowell
shallow
rout
Sep
hype
abducted
batsman
Saunders
Canadiens
thieves
tore
helm
Randall
prescribed
newer
altered
retirees
notch
Geithner
Wheeler
Democracy
Venezuelan
admitting
Driver
companion
Mel
unpaid
Karachi
sequel
Haley
sidewalk
coordinate
Brennan
rejection
Past
individually
portrayed
annualized
Jakarta
disrupt
judiciary
flower
McNabb
Eli
Q3
Lambert
Shirley
Fighting
uprising
OTCBB
clever
commercials
participant
utilizing
welcoming
Dear
DELHI
overly
Hamid
misses
eco
disk
exporters
YMCA
hooked
-##
cables
unnamed
hammer
pond
adequately
orchestra
frankly
justices
champ
experimental
eyed
demographic
Davenport
sweat
Clinical
HK
Elections
contends
formats
federation
Rudy
McClatchy
Winning
kg
horizon
Gill
ignoring
Westminster
Moines
Keller
Fernandez
marriages
ranged
boring
Lilly
Alberto
Bros.
Howell
rented
Headquartered
pill
Wing
bow
dug
gunfire
defining
indefinitely
hats
dumping
pleasant
grabbing
unusually
distress
fastball
scrimmage
Table
professors
smoothly
hefty
goodwill
biology
engineered
attractions
totals
Frontier
survivor
defeats
injunction
pairs
MW
shield
Cory
potatoes
slain
quantity
subtle
supplying
fraudulent
keynote
Q.
recycled
emphasize
CBI
rewarding
surging
stormed
leasing
staging
comparing
handsets
caller
mechanisms
dispatched
tighter
tuned
Zawya
Except
impaired
Webber
exhibits
bio
ranges
Bruno
topping
Supporters
Ukrainian
Sabres
Russians
fossil
defensively
capturing
filmmaker
nail
compensate
Waters
Malik
Kerr
Aussie
inauguration
suppose
baseline
refuge
resorts
costumes
lesbian
goaltender
losers
consolidate
Santana
selecting
MRI
Ramsey
mortality
calf
attributes
honoring
Brook
tanker
gamers
uninsured
Blackhawks
Pleasant
Downs
sheep
exotic
Published
mentality
Select
Tina
Realty
unconstitutional
Europeans
Boyle
skate
Hancock
Application
Volkswagen
unexpectedly
Pool
clarity
prohibit
immunity
Africans
installations
Fridays
akin
Winfrey
shorts
**
Sebastian
exceeding
AU
weakening
Clint
Burnett
dash
redevelopment
Colombian
wished
stranger
Brittany
Halifax
organizational
Fulham
shotgun
antitrust
Suisse
Weekend
contentious
specifics
qualification
shaky
Horn
UP
rigorous
inaccurate
downloaded
Congressman
Ratings
bypass
popped
disappear
bits
rubble
Kraft
subway
Say
Scout
UT
Schumacher
Danielle
raided
consequence
loads
Getty
Hogan
cows
Regardless
contracting
attacker
Byron
BYU
deceased
crashing
Aurora
Marvin
neglect
designation
photographers
necessity
Camden
Agent
Apr
Buffett
Fowler
viruses
apple
module
stretches
Ho
batch
umpire
acknowledges
personalities
palace
undoubtedly
ladder
masses
compliant
fortunes
tunes
layers
ANC
Carolyn
cans
Communication
Blacks
Deep
Norwich
equivalents
Exploration
Bulletin
cart
whites
Belmont
arising
sailors
lodged
spun
blanket
arson
void
Citizen
aerial
Fleming
cancers
poorest
Really
halls
operative
infamous
waving
factions
Argentine
digging
bullying
Carlson
Loan
casualty
Know
stats
MLB
emotionally
navy
precedent
bowlers
crystal
Nike
disciplined
Panama
suing
fatally
incorrect
Beirut
Rovers
arrange
predominantly
Niagara
Claude
primaries
float
packing
nuts
patrols
Copper
indirect
assumes
investigative
slumped
Ministers
interrogation
rapper
nicely
Leicester
Michel
ensuing
Jeter
preceded
marketed
Watkins
slice
billed
gunshot
nickel
Q4
Tibetan
Rhodes
artwork
SMS
Tomorrow
pleading
Available
enthusiasts
Q2
extradition
Judiciary
staffers
stretching
Stamford
pictured
EA
prop
logging
Citi
Minority
PRESS
Parade
rumor
posing
Pizza
migrants
bang
discharge
unpopular
surpassed
experiments
converting
Bass
inclusive
forecasting
reactors
chambers
hint
distinctive
Felix
Marsh
overwhelmingly
muscles
BAGHDAD
Concord
durable
Packard
Dozens
obscene
Mann
Millennium
Battalion
busiest
fatigue
specify
widow
riots
geographic
Kristen
mob
trustee
trainers
screened
aspirations
protesting
jumps
recordings
judging
Aside
assumption
Responding
prosecuted
recurring
Roll
Volunteer
sensor
Catholics
shrinking
negotiation
relegation
tricky
coroner
proposition
congregation
hormone
Gaming
animation
O'Donnell
dictator
Violence
AB
Newspapers
ratios
Rail
Hero
Moving
Roethlisberger
outings
builder
beneficiaries
Lion
oath
authentic
lied
Pike
phenomenal
Solomon
acquitted
Rex
allied
Spitzer
Stephens
Face
packs
hence
corps
empire
perimeter
Scouts
FL
robot
efficiencies
mortar
skiing
confined
Micro
granting
beverages
Roland
cheered
Lama
configuration
Dover
Bud
bracket
App
solidarity
lover
heal
delight
cushion
Iceland
constitutes
comedian
delicate
Bring
unsure
varying
highlighting
chaired
asleep
geared
Gartner
propelled
selections
breakaway
pulls
balances
Regulatory
Gujarat
ambition
Boxing
brink
Poll
Sweeney
Domestic
pinned
Savannah
furious
Liberation
receipts
festivities
Daly
Benitez
wonders
tainted
catastrophic
sewage
cooler
Barker
punish
tenth
golfers
Match
Sally
golfer
rocked
Chevron
whatsoever
insured
Stearns
cluster
foundations
palm
discontinued
utilization
Ram
spinning
offensively
Soldiers
LTTE
woke
Morton
Spa
gig
playground
wears
literary
unavailable
benefiting
reversal
Touch
criticize
sponsoring
certainty
Haitian
slate
boundary
Crist
hinted
utilized
Penny
subsidy
lingering
filter
statistical
absorb
grim
driveway
identities
waved
phases
southeastern
Cafe
Bluetooth
Roma
wives
Felipe
Thursdays
dried
Wilkinson
Stafford
Sharif
porn
accordingly
laundering
varieties
aided
guides
Acting
humble
platinum
-#.#
debated
verification
stir
Rain
lieutenant
reorganization
Businesses
Salvation
Sector
overlooked
Broad
exhausted
Solution
proposes
Quarterly
preserving
########
protects
HOUSTON
smokers
Emmy
Eye
belts
Annie
purple
Nortel
transmitted
productions
Anything
tricks
Oval
installment
homemade
mega
luncheon
retaining
I.
Capitals
pepper
assessing
Shakespeare
loading
tolerated
Shepherd
foremost
populated
academics
Truck
Zuma
expands
proximity
lifelong
mold
policeman
founders
JONES
rupees
Beatles
chancellor
crises
Louise
evacuate
Coyotes
Goodman
Single
plight
Especially
MICHAEL
Walters
bug
Javier
Brooke
Carlton
Dogs
dresses
Higgins
advertisements
BSE
smiles
###,###,###
seekers
disrupted
dock
cord
fallout
planners
richest
criticizing
bishops
ballpark
plaintiff
constraints
physics
metric
Practice
listeners
franchises
standpoint
drum
TDs
Presbyterian
obstacle
wishing
Sidney
deliberate
Range
councilor
Greenspan
indirectly
vulnerability
businessmen
Mick
Concert
Metal
spreads
generates
forged
PT
festivals
sensation
Tar
Raul
Santiago
pledges
Planet
elegant
capitalization
DUI
trailers
Extension
Equipment
adapted
weaken
commanding
lobbyists
BEACH
Brigade
coveted
eagle
RIM
spree
songwriter
Usually
#.#bn
therapies
potent
Proceeds
outskirts
Wong
scorers
rage
shaken
UNC
inconsistent
tighten
boarding
Gallagher
DS
fielding
regained
downloads
Storage
hatred
Gloria
constructive
Ramon
Mini
partnered
proceeding
sprawling
Often
delicious
Calvin
ingredient
proactive
Bentley
variable
tendency
shaping
speedy
mansion
allege
comparisons
scholars
Consider
literacy
Noah
Fiscal
cyber
tents
seafood
massacre
earns
Joy
composer
paste
Borders
shipment
possess
seated
Westwood
cancellation
Ladies
Doctor
steer
Alfred
fairness
orbit
doubling
Guild
hugely
concession
translation
Edgar
paths
buttons
emergence
tongue
Bowling
shutting
Mickey
aces
upgrading
Commenting
Visa
bump
composition
awkward
Mountains
Guinea
Thaksin
clutch
taped
authorization
Ernie
tactical
navigate
accuse
servants
intake
accomplishment
homework
basics
swift
Fiat
Mourinho
PARIS
presumably
banker
proliferation
eg
youngster
widening
inflammatory
adaptation
cab
malicious
fullback
homeowner
Veteran
peoples
plead
upscale
reimbursement
liberty
choir
ample
clarify
unwanted
Hawk
counselor
archives
Jammu
pros
advising
republic
weighs
MSU
repaired
prediction
Politics
scoreboard
Rotary
collateral
accumulated
Sabha
strive
burial
Truth
readings
invasive
edited
variations
autism
intriguing
optional
brakes
narrative
Franco
DO
Lauderdale
darkness
JJ
hazard
Need
lightweight
cheers
cute
slap
Tuesdays
k
Carrie
crafts
tomatoes
Ready
pouring
barn
downgraded
enforced
lakes
Kremlin
winless
Advertising
expressly
Rolling
Jensen
infectious
backgrounds
Alexandria
entrepreneur
Irvine
backlog
imagined
Ole
checkpoint
turbines
innocence
Teresa
Canton
Cat
Sims
Morocco
leveled
partnering
leased
exceptions
armored
Gerry
seminars
bearish
fabulous
Malone
informational
psychology
Actress
Treaty
Comedy
pause
Algeria
staggering
symbolic
marketers
Cavs
Hayward
tightly
architectural
backward
Beginning
beings
tumors
renovations
Millions
Zhang
assistants
----------
Avery
tortured
grasp
Rwanda
cared
Dillon
chunk
viral
aggression
controllers
bent
optimization
Eleven
Rahman
nephew
Russ
intentional
Hitler
outrageous
submitting
Unified
bride
gays
###.###
Publishing
ppg
Dalai
Sunshine
analytics
consist
tailored
troubling
Railway
Advisors
Swan
dismal
Tobacco
Per
protested
inherited
charm
secretly
baked
cruel
Holt
Conway
swings
comprises
coin
Bucs
versa
Petraeus
peacekeeping
Heisman
proteins
admissions
Kimberly
surf
analog
Waste
Pablo
signaling
Germans
#:##:##
appropriately
Sergio
potato
assurances
truce
Rate
Libby
undergraduate
vitamin
Basically
Djokovic
feasibility
Filipino
unsafe
Istanbul
optimize
Lang
Guillen
briefed
Parkinson
Barnett
Staples
BT
MORE
Lamar
slipping
Ma
Questions
Middleton
Episcopal
proclaimed
Bronx
quantities
TJ
Wow
torch
stronghold
Carlisle
Cannon
Friedman
fathers
versatile
entirety
Ramos
formidable
reconsider
Belarus
Tiffany
Premium
Lennon
Bancorp
Toshiba
lens
Worcester
Contract
destructive
compromised
Devon
moderation
divorced
bidder
breathe
Treatment
ridden
catastrophe
grabs
narrowed
flavors
Shields
loop
embarrassment
Hewlett
Norris
consciousness
bidders
Somerset
Horton
psychiatric
TX
amenities
treasury
Roth
Medal
Virtual
verified
Mullen
Imperial
Launches
CP
Doha
Pratt
calculations
isn'ta
bowled
Integrated
militias
leaks
Dragons
buck
Liam
comfortably
impoverished
extremist
Brock
tangible
Lahore
discounted
predictable
##:##:##
Coastal
Registered
hampered
airing
BE
Cooperation
Lab
Denise
squads
swung
undertaking
Impact
Tide
Garnett
Mueller
intensified
Wave
immense
cheating
cage
infants
displaying
broadcasters
entertain
Desk
hurdle
confusing
CO2
Manitoba
VIP
nerves
Traders
PS3
Anglo
Cut
tactic
consume
spilled
transferring
neat
Niger
umbrella
Multi
smartphones
un
instability
virtualization
commercialization
Scotia
ensured
historian
notched
Ark.
supplements
poisoning
Tate
drums
shrink
permitting
mills
Marina
Jet
PAUL
sandwich
Skype
OSU
accuses
translated
labs
restraint
WITH
fitted
AK
genius
Ledger
thrilling
advisors
tablets
Trinidad
Ana
ideology
Powers
refineries
Nigel
rematch
Protocol
Insight
Fuller
filmmakers
prosecute
ministries
Shopping
Keane
Probably
WR
Osborne
cycles
branding
Kolkata
debuted
FILE
McMahon
shoots
rope
exterior
integrating
creatures
Ike
waiver
Kurds
presently
prevents
statutory
asserted
Sat
packaged
Booth
Trafford
slick
Spaniard
mineralization
Borough
Forty
Bates
Woodward
DETROIT
preserved
objected
owes
disagreed
irresponsible
Iverson
cooperating
reign
dealership
Colonial
societies
DL
L'
Mideast
Ecuador
Into
aunt
Herbert
Murdoch
magical
Website
organs
Tan
balancing
buzzer
ejected
Fairfax
kicker
Edison
interfere
leaking
Apollo
Son
consultancy
newcomers
FedEx
rays
loser
enjoyable
prints
Malta
tenant
pistol
sneak
crafted
Heels
Bernie
Lansing
vacuum
Simply
mm
flaws
efficacy
Certified
Grill
Condoleezza
Ashton
Bauer
moderator
Grande
toured
laughter
heaven
Actual
SE
Belfast
assaulting
induced
Assets
cried
volunteered
Celebrity
bucket
MarketWatch
cartoon
Mercer
satisfying
bath
blockbuster
Monte
premise
seamless
Porsche
thereafter
pads
cracks
Serbian
Gutierrez
outline
juniors
Brighton
##-##-#
tariffs
Archbishop
approves
Associate
Semiconductor
approving
Factor
Gen
Cambodia
morale
quo
Canal
#/##/####
Arbor
#.##am
Ponting
Bus
Zardari
discharged
nonsense
kiss
Bath
deadliest
continuity
lacrosse
qualifications
facial
hectares
Fallujah
vault
wallet
timed
DOW
assaults
gifted
destined
interrupted
miserable
Pam
downhill
Wednesdays
cracking
groundbreaking
stringent
Farms
Adding
encouragement
unspecified
Hat
Debt
behavioral
Welch
Atomic
broadcasts
rallying
Greenville
Collection
ALL
wreckage
Dalton
deteriorating
Easy
TB
enhancements
horrific
merits
stack
Mondays
blaming
amazed
Jong
kits
scandals
visas
Aziz
assignments
Polk
confirming
blows
auctions
databases
wasn'ta
merged
Bahamas
derby
multinational
seasonally
stark
Vaughan
sedan
Utilities
WA
subdivision
privileges
Bowman
liberals
Suffolk
garnered
Stevenson
revision
spouse
Ricardo
theirs
Motorsports
Mustangs
monopoly
Initially
Paramount
RB
projection
Pace
camping
Jun
NOTES
Resorts
tripled
Eaton
G##
MP3
Calderon
mergers
Daley
balloon
mercury
marching
bounds
principals
emission
registering
overview
LPGA
repurchase
Cathedral
Satellite
drastic
Midland
angered
competent
hurry
Bayern
downed
prostitution
fatalities
Hanover
Performing
goodbye
accidental
crush
spa
connects
miner
vicious
Were
chorus
Aggies
contempt
ruined
MGM
retaliation
Kidd
MBA
inevitably
irrigation
##am
Keys
thrive
influences
timber
Deputies
technicians
Agricultural
Orthodox
MacDonald
relentless
Supervisor
Crews
magnetic
departed
commence
sculpture
parcel
whereabouts
terminated
mapping
proudly
Kendall
refining
Afghans
negligence
Jolie
Wu
stems
Ont
daunting
kingdom
openings
scramble
Response
spurred
Tinto
merge
analyzing
EMC
Turn
Buchanan
Sparks
Longhorns
Fellow
thirty
Monster
warmer
IRA
Vote
SARS
fractured
Hussain
Moses
Nicholson
donating
Koreans
Wes
drawings
ND
stall
shrimp
rugged
Becker
Standing
tolerate
privatization
workouts
Laboratories
crushing
interstate
seasoned
enduring
females
Hyderabad
advises
Boehner
Fight
pressured
dear
laden
imperative
continuation
Terms
placebo
countered
Minutes
specifications
Bowen
poet
brains
ceasefire
acceleration
seizure
Hit
underwater
exploitation
Levin
Haas
obese
gentle
Noel
strains
Wen
stricken
Ring
Hispanics
Treasurer
Brenda
Sonia
Alpha
magnificent
bishop
demise
supervised
mg
classmates
subcommittee
impress
policing
Lockheed
textile
sacred
Flores
Ashes
dancer
dugout
Talks
Twilight
diligence
marker
BNP
Image
Farrell
alarming
consolation
persuaded
traumatic
Progressive
Harley
pipelines
Honduras
Same
Fayetteville
await
Elite
Kahn
CIO
trimmed
severity
denounced
nonetheless
eur
mixing
Growing
deploying
CAC
trusts
edges
deter
Factory
NV
submissions
negatively
gubernatorial
compassion
Drivers
fundamentally
Dinner
Category
Damascus
PO
clue
Type
Maharashtra
Telstra
Sheen
yoga
Dragon
praying
Savings
penetration
Hammond
slogan
resisted
plots
Flint
GST
warranty
commuters
quoting
Basra
catalyst
Hold
Leigh
Hearts
escalating
##A
electorate
FDIC
Denis
Career
Okla.
prevail
rescuers
settlers
doubleheader
Naples
Hamburg
saga
Fulton
killers
refined
clad
distraction
roller
spacecraft
heck
unofficial
abortions
Bartlett
Aviv
Revolutionary
Kyoto
Cumberland
backers
Volvo
conscience
initiate
unconscious
Hastings
progression
Roche
outer
LNG
laundry
rand
Blog
Knoxville
Named
Persian
barbecue
prospectus
vague
mechanics
outfield
Cynthia
molecular
Similar
Accounts
synthetic
unveil
timeline
treasure
advertised
artillery
ETFs
considerations
handheld
Lori
closet
Pacquiao
PHILADELPHIA
amend
possessing
Paulo
Hasan
Lyons
Funding
ATM
Move
Carlo
pushes
violators
excuses
grounder
Options
Tomas
bruised
delaying
Westbrook
Sixth
IPL
unpredictable
Sharapova
Emanuel
chairwoman
unanswered
yours
scrambling
negotiators
Letter
surgeries
CEOs
Purchase
Mental
Lester
speculate
thoughtful
Talking
Calls
Vehicle
Legislative
McCann
contributes
generators
silicon
fixtures
lobbyist
radioactive
diverted
NM
pig
troopers
sergeant
Molly
Coliseum
Chef
ovation
indicative
powerhouse
Considering
prohibits
Fitness
Angola
hiking
rumored
ordeal
Retirement
ravaged
Isaac
fouls
extract
municipality
jockey
Macy
rendered
O'Reilly
V.
Peyton
Coaches
rebate
Defensive
Engine
Oscars
undertakes
Kid
occupancy
yielding
dynamics
Wide
Slovakia
bankrupt
slept
Adult
outages
Cutler
rejects
shells
FXstreet.com
def
Meadows
Lucy
Whitman
prevailing
Kerala
Neb.
summoned
Savage
Rossi
grassroots
DA
socially
ligament
STAFF
Nile
peacekeepers
Fun
nearing
Melvin
Bermuda
supreme
Gerrard
drowned
Tropical
BJ
insulin
Sergeant
Materials
royalties
intimidation
McCartney
Made
vacancy
pits
surfaces
contacting
Changes
rampant
ISO
warfare
flick
Ivy
Benton
Angelo
Iranians
Twelve
aka
evolve
monument
Audi
USS
bucks
Graeme
rainy
smiled
adjusting
drainage
situated
Bonnie
Wakefield
puzzle
drafting
vocals
colonial
thrust
relates
Preview
Baxter
couch
surfing
Cpl
incomplete
backlash
Fischer
accustomed
Parsons
Connor
Guerrero
cocktail
merchant
quarterfinal
Pastor
maritime
Musical
Zurich
bunker
farewell
Reese
Tanzania
Leno
cartel
malaria
postal
museums
Romero
Byrne
Acquisition
Watts
Anonymous
tempo
bloggers
detailing
guarded
Giles
fried
reinforce
Gloucester
Crisis
Castillo
Bali
erosion
Dam
Anita
flurry
essay
Kaiser
robberies
toddler
etc
Hi
RHP
printer
Comment
prefers
registry
southwestern
Lagos
occupants
rooted
diamonds
Monitor
XP
Privacy
Holder
Break
ineffective
Gaddafi
arraigned
amnesty
Maxwell
Nonetheless
Productions
sanctioned
Crescent
Telecommunications
prep
fueling
4A
Signs
handy
bore
cult
Wise
sailed
switches
taxation
snacks
Kenyan
Richie
Hang
Overseas
Amid
collaborate
Stockton
curfew
Allied
NW
tastes
Shiites
lip
needy
Ki
Led
dilemma
interpreted
Pavilion
ethic
MIAMI
vying
NDP
safeguard
consulted
Approximately
occurrence
Carnegie
neglected
Saleh
oven
Incorporated
skid
sensible
Anchorage
Communities
trans
UPS
cites
Cars
Corrections
streamline
masks
Mad
sums
Amazon.com
Calhoun
siege
Dome
happier
Founder
invites
pains
mock
Atkins
Diluted
festive
Durant
ensemble
Twenty##
Armenian
sour
particles
Spokane
Teacher
Marks
readiness
chickens
tales
Prudential
spinner
revisions
impending
wastewater
Near
wildly
testament
paired
forgot
remarked
f
malls
peninsula
terminals
stylish
residency
Yates
Schultz
quota
thread
Healthy
intoxicated
meth
-------------------------------------------------------------------------
inclined
newcomer
improperly
foes
Sands
Edwin
Sensex
rifles
layout
whale
strangers
Novak
Liberia
resting
ecosystem
bunt
Livingston
emergencies
Amnesty
gradual
icons
sanctuary
luggage
examiner
invented
preferences
Madden
unite
Bowden
HTC
CJ
spared
Counsel
regrets
Greenwich
Belt
Minerals
commercially
subjective
withstand
Sunnis
DE
Canon
extensively
Shield
Crew
deterioration
sidewalks
progressed
Previous
tightened
Rollins
microphone
Poker
Colonel
Moreno
Ultimate
Capello
strides
Albuquerque
tourney
Fe
realization
Pak
OUT
Maggie
originated
poles
piled
Success
Postal
Christianity
accompany
auditor
Rapid
novels
slope
corrections
sounding
redemption
Eden
Marquette
Harbour
WikiLeaks
nets
thriving
Sheila
Proposition
Larson
endeavor
drummer
publishes
rested
AME
DAX
hammered
bumper
architects
Gareth
Infantry
da
mandates
Realtors
Nairobi
Baton
supermarkets
porch
enroll
petitions
Avalanche
overdue
fronts
blowout
influx
callers
attracts
Massey
applauded
Advance
Separately
Academic
Prep
banners
Buzz
servicing
Scholarship
Gerard
roadway
McGee
Irving
JR
eaten
straightforward
toppled
abusing
Mandela
prescriptions
sail
speculative
reinforced
Alvarez
aligned
Always
fulfilling
Sooners
Raceway
editions
tapping
canal
murdering
Denny
gravity
Burger
Archives
generator
Devices
fracture
underage
memorandum
Offering
flagged
CB
bingo
Missing
blankets
genuinely
leveraging
govern
Burma
fog
Gibbons
accelerating
Frances
Pujols
brake
Question
Darrell
Meredith
revelations
inducted
promoter
theories
Monaco
advertise
lounge
Hyde
Canberra
Moran
Mayer
drastically
LAKE
Host
blockade
Zero
faction
reservoir
headache
borne
shrine
catering
recommending
Aspen
Ahead
Nguyen
skull
moisture
rang
escorted
Contest
discourage
Tories
discovering
Villanova
Vaughn
gut
Cathy
gospel
internally
Tacoma
Hawaiian
Hour
yelled
Stoke
Laurel
mercy
Crusaders
worthwhile
WILL
deflected
beam
swiftly
Tripoli
Strickland
enhancement
Bo
tagged
Olsen
ruin
realities
Photos
Programs
periodic
Charlton
h
thigh
Pharmaceutical
rigs
withdrawing
biotech
Marilyn
injected
satellites
Habitat
doubtful
waived
Gap
legislator
clashed
NT
condo
Agencies
McKenzie
pilgrims
exceptionally
Met
distressed
Jermaine
developmental
JC
Michele
exercised
Bright
gala
insiders
el
Lara
collegiate
Corner
TODAY
lion
alien
FOX
wellness
baggage
Humane
Minor
chooses
waterfront
Educational
SS
Maoists
northwestern
twisted
Weston
comprise
commuter
foam
explored
recalling
dreamed
winding
Platinum
gratitude
Whenever
auditorium
behaviors
Canterbury
Bulgarian
expiration
Chang
honorable
relieve
happily
Tanner
tackled
Dee
Assad
Miranda
Beckett
makeshift
asbestos
SW
policymakers
graffiti
picnic
directive
imprisoned
viewer
Opponents
Farmer
champagne
Leone
methodology
strings
Darling
pigs
Tahoe
Button
parental
dealings
unwilling
blunt
Regulation
Train
colon
relocate
Tsvangirai
Alto
Shea
spirited
Mo
FORT
Garner
alley
ribbon
absorbed
capitalized
Stockholm
swimmers
Manufacturers
stride
earmarked
defines
NEC
separatist
parameters
punk
commenced
Wolverines
condemn
provisional
Volume
Firm
Beat
spinal
Dominion
scholar
Chi
knockout
Mirror
resisting
heights
employing
whales
guiding
deliberations
circus
affirmed
Cadillac
gorgeous
enforcing
revelation
MIKE
fearing
popping
crisp
Beaver
McLean
disruptions
invaluable
resolving
cumulative
Selling
ideological
cafe
Active
Bosnia
Dorothy
lungs
restitution
AZ
plotting
dragging
Karnataka
relocation
Orders
coins
OT
technician
Gets
stumbled
footing
TradingMarkets
banquet
slogans
equalizer
Films
outfits
prototype
stamps
##.#m
Simple
Disaster
Broadband
GB
demolished
nutritional
concealed
Herman
###s
flipped
shade
Pamela
modify
carved
jeopardy
peaked
lieu
Heroes
Taipei
Ariel
diminished
prolific
advertisement
outspoken
overshadowed
traced
fist
SM
scaled
selective
Cards
Oman
Auditorium
Letterman
massage
endure
Lottery
Mansfield
timeout
measurements
libelous
attends
unfairly
alliances
acknowledging
Countries
Mosul
mindset
Driving
irrelevant
grenade
Cuomo
Rise
Mercy
rejecting
Wins
Marcos
Elaine
salvage
Auction
adversely
Cain
negotiator
Magistrate
symbols
Giant
ANY
Weiss
checkpoints
pleas
Barney
tariff
havoc
Pilot
Sell
RF
trout
Crowley
Pepsi
Labs
Bolivia
Carnival
introduces
trunk
prudent
discusses
Ingram
McGrath
capita
Seymour
sting
Robbins
Charity
Rove
hourly
theatrical
McDowell
inspected
anglers
AD
Lok
Ethiopian
Hutchinson
Points
Childress
RI
corrected
Hamlin
Maoist
Organizers
Abuse
soda
Amateur
exploited
Isle
sincere
VANCOUVER
trophies
Dominic
Attorneys
Christchurch
com
punches
footer
crosses
campaigned
brass
conditional
Kyi
GOOD
mileage
referees
rebates
eleven
Monterey
professionally
cellphone
stunt
recount
-#.##
arthritis
faded
harmony
Beauty
consultations
contended
undergone
alleviate
concentrating
optimal
Nice
appliance
overturn
ACT
Shelton
someday
famously
exceeds
archived
DENVER
Goodell
zinc
clearer
Alicia
Initial
Buddy
Stand
televisions
Marin
Complete
IDC
PhD
shark
Jazeera
educating
resumes
Reddy
bureaucracy
deleted
Bihar
maiden
Greenwood
communicating
hires
flame
Jeep
bookings
guerrillas
demo
Benz
Outstanding
countryside
occupy
headaches
W.Va.
Salvador
blogger
Soul
relocated
collector
tab
encounters
sunshine
grenades
Colombo
glance
Sussex
peanut
Duffy
Sister
dot
scrapped
hazards
olive
turbine
FX
Than
repayment
Kemp
#/##/##
Hoover
misery
Scottsdale
Ventura
energetic
southbound
scouting
tasting
pounded
Rating
Downing
Tier
distributes
Launch
norm
Emerging
###.###.####
NE
Greens
remedy
TOM
smarter
lackluster
Palo
polite
psychologist
envelope
Payton
interactions
peacefully
Bashir
von
legitimacy
brace
Cotton
spanning
Weeks
realizes
Sacbee.com
revived
Weir
Surrey
gamble
upstairs
Step
Alison
Presidents
Kitchen
Legacy
indie
FT
unleashed
Interested
bribery
login
batsmen
Venice
conglomerate
moms
inflammation
Lucky
Armenia
Advocate
stairs
VAT
masters
Predators
rack
methamphetamine
Pervez
inspect
floated
Sixers
Qwest
Salazar
paralyzed
crowned
idle
Hale
sacrifices
uniquely
Hague
freedoms
Tara
inflicted
Frenchman
traction
Regina
definite
butt
motorcycles
consisted
splitting
Assessment
Dion
McBride
THAT
Courier
accredited
Kuala
Guam
Tesco
MMA
Trustees
deported
Griffith
Ethics
Coke
Rowe
Laurie
Sporting
slapped
severance
daytime
Angelina
commands
territorial
devastation
damn
Terrell
smash
practitioners
Carbon
Valerie
Dirk
Timberwolves
sentiments
NOTE
Chevy
Cool
Cherokee
Provincial
hated
indices
pour
exercising
Writing
abduction
greet
steroid
absentee
Accounting
wires
Jarrett
Cullen
Coventry
Belichick
Di
affiliation
Frazier
airplanes
MLB.com
Duluth
wraps
optimized
sandwiches
Kelsey
Sergei
cruelty
memorabilia
paved
Pena
bleak
Leave
Keeping
Suu
Crash
Abbey
remark
Woody
desirable
PPP
GSM
Present
Qantas
Mobil
Petty
thunderstorms
transforming
worsening
combinations
understandable
chefs
establishments
Accordingly
Process
beautifully
ribs
Hospitals
Constitutional
remake
rocky
precautions
IM
Machine
ed
Southampton
thrill
procession
reminiscent
Philly
Spider
boxer
leaf
FROM
Irwin
Honolulu
Judicial
conceived
subsidized
Cap
delegate
TCU
belly
Melanie
Clarence
Popular
Badgers
enlisted
Nursing
chapters
pioneering
rein
poison
Putnam
booths
seas
remotely
Institution
Boss
Buddhist
ARE
Owners
gateway
Calif
Fifty
whopping
alcoholic
thereof
absurd
shapes
Gail
flesh
extensions
bulls
conducts
hail
Ruiz
avenues
Jimenez
Charges
screenings
bugs
ASX
Breaking
mitigate
cater
incidence
Voting
rattled
yacht
JavaScript
Examiner
§
passports
sustaining
AN
Philips
Harding
Individual
commentator
elephant
fi
patches
RBS
skepticism
Terri
postpone
arose
Specifically
Welfare
qualifiers
Rica
framed
Kodak
abide
Hans
termed
exporter
accountant
Trenton
inexpensive
problematic
Guest
dare
culinary
auditors
Detectives
liberties
paramedics
Netflix
obsessed
conflicting
Greensboro
identifies
boarded
Alcoa
Added
adhere
responsive
Clerk
acoustic
slavery
Alerts
completes
deployments
incorporates
Finnish
Reach
Emerson
Carney
Pick
battlefield
Renaissance
wasting
Piper
Originally
Schumer
Ski
Mosley
Mont
indoors
remarkably
Cannes
Combined
researching
STAR
squeezed
Finding
EAST
Macquarie
vein
modifications
viability
defects
artifacts
Darwin
advancement
Engineer
PDP
withheld
OTTAWA
antibiotics
Fleet
Katz
au
Henin
convey
mighty
aisle
distributions
supplemental
ass
sin
god
locks
Below
accessing
CO
slew
clergy
irony
mourning
Milford
Giving
Maritime
RBC
elusive
cups
exposing
honesty
jaw
Devin
Sorry
collectors
northbound
DALLAS
landlord
narcotics
authored
Ehud
3A
minerals
Summers
Sheridan
trooper
Clement
Dynamics
widened
dimension
underwriting
autonomy
Hell
Heidi
Pawlenty
magistrate
slides
Billiton
generosity
tiger
Jamal
coordinating
renovated
Lisbon
interval
Cy
executing
Lamb
Talent
proceeded
descent
Il
apples
Joaquin
Townsend
equation
Resolution
belongings
Holloway
Language
galleries
Rates
Letters
translates
Chesapeake
drained
volunteering
Dundee
wipe
precaution
hunter
Chattanooga
DIEGO
Reeves
Zimmerman
Vale
Fri
hints
Cam
scanning
Collier
Generally
complimentary
heavier
retrieve
dimensional
Nadu
Regarding
barring
rows
dissent
Holden
Peak
dialing
scans
junta
Taiwanese
probability
revoked
Gun
inconvenience
chanting
Roads
assertion
Ferry
Flood
volcano
AFX
restructure
Fremont
Owner
Zacks
doomed
Datuk
SOA
armor
Hand
captive
Nowitzki
contractual
Alcohol
swelling
Coral
Bachelor
mirrors
Specter
speculated
UAW
Opportunity
breached
reeling
myth
Pasadena
faulty
Fidel
outraged
Els
MDC
rim
Flying
wrestlers
Junction
labeling
Sammy
vandalism
Dudley
anticipating
URL
Sisters
Normally
Suzanne
Sloan
strategically
scrambled
Addressing
Salman
Gamble
Bloomington
arsenal
bottled
Prague
dessert
distracted
NGOs
boutique
DeLay
Gone
Chance
Delphi
plummeted
Ride
captains
Levi
annoying
Ruby
misuse
lips
sparking
startup
rip
linemen
Supervisors
environmentalists
Panasonic
Peoria
awaits
Projects
accent
VMware
coupons
Bombay
calculation
Exhibition
Carmel
daylight
enriched
eurozone
Johan
sufficiently
Vijay
putts
redistributed
Browne
voltage
ISLAMABAD
Olympia
customary
Da
Tendulkar
chaotic
surgeons
Sheets
secrecy
incorporating
disagreement
Glover
Mellon
usd
Highlights
hardship
gently
leftist
responds
congress
candles
plaque
breadth
Lin
Elena
unsecured
Beer
Purple
unstable
retains
motel
Ty
EC
Pharma
Seng
TPS
Yemeni
cruised
Loans
spelling
freelance
empower
rookies
anthem
Alexandra
cite
rink
Shot
liters
Deer
motions
plasma
prevailed
Raj
intermediate
Alternative
Midlands
McCormick
jungle
Fenway
applicant
tended
WRITER
landslide
Lay
frenzy
authorize
counselors
globalization
Molina
passive
medley
inflated
Cobb
inserted
responders
erased
subdued
Aerospace
Paradise
Braun
jewelery
Style
butterfly
Winners
frightening
simulation
Vanessa
¢
snack
tandem
standardized
Yao
vows
Reilly
destiny
respectful
uncommon
ICT
Mitt
PBS
easiest
Diabetes
straw
Greenberg
XM
planner
LB
scalable
federally
Pearce
interviewing
honey
Rendell
Guatemala
Pet
prevalent
ASU
laboratories
.....
slaughter
4G
privileged
pavement
Enter
Batman
boast
plc
nevertheless
governed
Dartmouth
cafeteria
Ethan
Bosh
socialist
Uruguay
Connolly
disorderly
ONE
Breast
deaf
buddy
collects
circulated
contraction
Arabian
mediation
resilient
mistaken
ghost
diocese
Dane
Summary
defamatory
Cinema
rents
behave
Emmanuel
Compared
Skinner
punitive
rewritten
Tribe
tomato
Stacy
outage
Mines
Billings
scout
deepest
robber
Neighborhood
Rao
astronaut
payout
curtain
##km
deadlock
GA
Sampson
dispatch
Jury
icy
justification
Kill
surroundings
homecoming
burnt
Jonas
deprived
Bravo
fool
finalize
protocols
captures
feasible
Quincy
##E
skipped
Jihad
baking
wildfire
compelled
Electoral
COUNTY
shores
Michaels
excludes
Goldberg
Wembley
downstream
paragraph
Hatch
Mbeki
portray
printers
Glendale
aliens
##bn
honorary
urine
retreated
gossip
detonated
fiery
expelled
Governors
traces
chanted
soundtrack
hug
extremism
Lehigh
jurisdictions
Towers
confiscated
blames
###p
gearing
phrases
slashing
Combat
Seniors
publicized
Buckley
granddaughter
cave
MUMBAI
Giffords
***
Activities
flour
gadgets
congratulate
preceding
sympathetic
Royce
breakout
bouncing
Quest
simplify
Bernardino
spouses
nyse
discoveries
classics
vanished
forge
revolving
Hungarian
gotta
Chicken
Kristin
publicist
Toll
cuisine
Chilean
Applied
Dwayne
Manor
Zarqawi
bred
LAS
marginal
Lieutenant
curse
hauled
classification
Sadly
Warwick
ASEAN
Becky
Dixie
Romo
Terminal
Hodgson
Bridges
Uncle
Administrative
Stories
Murder
scouts
Famer
Mayweather
decree
canned
JV
Schroeder
Beacon
outdated
Erickson
fulfilled
Asif
Prof
Parts
Waziristan
backbone
barrage
Chartered
reunited
conventions
PSP
FY##
Dairy
McKay
rebuilt
Gainesville
avid
Graves
filters
photographed
Strike
Lights
seamlessly
Pontiac
calculate
Gupta
Artists
sloppy
abruptly
ministerial
underdog
CBC
Multiple
Hariri
pediatric
Celebration
Slovenia
Audio
Pettitte
Sheldon
SP
defends
cloudy
soaked
cookie
Gazprom
pounding
footsteps
forecasters
independents
eminent
triggering
WiMAX
slugger
evenly
McLaughlin
rational
Jul
pedestrians
Breakfast
Maureen
robots
bulbs
Anyway
foe
unveiling
fielded
pretend
Boris
Preferred
telecast
Burgess
fortnight
SEATTLE
Ticket
EMS
ringing
carnival
underwear
gardening
Connect
MAC
origins
repeating
seismic
harness
tow
Nottingham
wrapping
aspiring
modes
Appalachian
Baird
Tomlinson
Vols
Juventus
Bayer
Connie
terribly
robbers
onset
Shanahan
Ranger
disadvantage
Socialist
Analytics
BIG
Dade
ATP
Forget
Flowers
wetlands
nude
norms
Gift
Dickinson
Barr
forgive
enact
Outdoor
vaccination
lodge
stacked
Prof.
condolences
decreasing
Perfect
reinstated
vastly
Sarasota
Boucher
Cummings
passer
Sons
electronically
rulings
exhibited
pine
Lumpur
rash
stresses
Centennial
Awareness
RTTNews
tabloid
Rupert
Costello
molecules
Portfolio
abundance
Issues
impeachment
User
##:##.##
Secondary
dense
litter
bait
Knowledge
surround
restraining
####m
Kaplan
altitude
vigil
Cooperative
hilarious
Boat
ignited
Tebow
AHL
Julio
Baron
workflow
charming
Goodwin
Andhra
myriad
Waterloo
Names
Seventh
smoked
scarce
ropes
PDF
wilderness
Deloitte
transcript
Guys
JIM
ABN
centralized
Login
slumping
thumbs
Ironically
disarmament
Ipswich
presided
depleted
herd
INC.
modification
Con
blueprint
progressing
Selig
fifty
Newswire
inquest
commute
Triangle
coincidence
McGraw
operatives
Leaf
descriptions
NPR
Ernst
Wilkes
Whole
realm
Abby
coupon
Rutherford
cough
metrics
arrivals
Upton
paving
Fan
Middlesbrough
Huntsville
Fallon
Thrashers
suspicions
ouster
Sunset
feedback@sacbee.com
Redmond
Cowell
CNBC
satisfactory
wired
cognitive
Offers
fences
adventures
accreditation
eliminates
rightly
Crane
submarine
McClellan
Nam
similarities
blade
fills
inland
stoppage
upfront
MARK
PF
megawatts
ft
dictate
discretionary
overlooking
commended
SAS
tearing
Advantage
deportation
Lots
thefts
embracing
cosmetic
sanitation
Rahul
instructors
pharmaceuticals
Jude
Wolfe
Absolutely
ballet
exported
Booker
Parliamentary
Defending
reassure
Luckily
susceptible
ransom
directory
Morrow
spiral
polar
whipped
containment
commencement
generals
trek
spine
pneumonia
slips
Must
jackets
Bethlehem
Clarkson
undecided
Qualcomm
fumbled
Neighbors
setbacks
Kindle
Bloom
Ellison
refinancing
R##
estranged
raping
Odom
Toys
thief
transporting
ritual
rulers
Cove
Mountaineers
Likewise
revamped
Clijsters
whereby
marred
runaway
snapping
penalized
vigorously
Updated
McKinney
Jordanian
Gophers
sensational
helmets
Jayhawks
preventive
Ritchie
caucuses
Patent
Ferdinand
Guinness
Heathrow
staple
Falcon
Designed
Khalid
Peggy
Patty
Havana
disturbed
buildup
Estimates
Luxembourg
breaches
Hence
bombed
Dividend
memoir
Rainbow
rebellion
suites
unsuccessfully
flock
complementary
Unity
Highlands
moderated
Uribe
Harvick
Broward
valve
respectable
Anglican
Increase
KC
Coordinator
Kendrick
paramilitary
Extreme
fared
creek
Pennington
obstruction
Clifford
Person
perennial
onboard
centerpiece
grill
pasta
Doherty
disclaims
utterly
embattled
Rasmussen
Balance
poorer
Gbagbo
lasts
broaden
brigade
Inflation
sectional
sword
Lima
Levine
TSA
outbreaks
Helena
Doc
Shooting
Avon
restriction
Fantasy
hood
mins
telecoms
nest
rubbish
pupil
Regiment
Elliot
liner
transitional
commentators
Joining
stab
spoiled
lefty
canvas
liaison
Interim
uphold
illustrate
Rashid
irregularities
convened
waist
lag
Artist
socks
directs
evenings
Stark
Judith
MasterCard
downgrade
ax
freeway
virtue
lectures
Cyrus
Entry
envisioned
Kramer
illicit
Elton
confession
payrolls
roofs
Builders
stadiums
rounder
insulation
Medina
Rover
weary
Theodore
XI
dementia
GT
Unaudited
guessing
Atkinson
refreshing
injustice
Mukherjee
Posada
incremental
Sutherland
grind
¡
fugitive
WEST
PCI
dumb
relaxing
inspirational
backwards
Coughlin
pave
distances
Hershey
Playboy
taxable
unparalleled
Prasad
Dmitry
unaudited
patriotic
Account
Notice
Rubin
methane
Coroner
YOUR
Sessions
ACLU
Yu
Wonder
downloading
Alexis
Zambia
stressful
ego
Extra
gravel
Riders
vigilant
brawl
spectacle
cartoons
COO
Crow
steak
garlic
Dominique
eagerly
Gaga
Bernstein
concede
pairing
basin
Amir
raffle
jerseys
greed
chill
Claims
mayoral
Julius
entrepreneurial
Crimson
awarding
safeguards
Instruments
Marvel
McGuire
admired
Hospice
brighter
Institutes
elders
Correctional
elevator
whip
Kirby
Hathaway
snake
admire
Beavers
anchored
intuitive
Author
breeze
patrolling
Stein
motives
Halladay
Ashland
ratified
fraternity
cousins
PARK
w
Sultan
Lounge
Councillor
Erica
NAACP
Away
bloodshed
religions
discourse
Developers
grilled
undermined
benchmarks
cyclists
Drugs
parenting
Nazis
genetically
chartered
Atlantis
derivative
Typically
COLUMBIA
Quentin
Sao
dealerships
Serb
hackers
weakest
Attack
Secure
crease
conductor
Pretty
R###
Zack
prejudice
XVI
linebackers
Hines
landowners
tooth
sterling
landscaping
G8
attendant
prey
Finn
scrum
Dexter
Buccaneers
useless
grueling
plastics
underscored
Northampton
Comprehensive
Ballard
systematic
debating
roaming
Screen
imagery
Jupiter
lonely
MARKET
fade
MSNBC
unused
stressing
Cahill
Drop
Ulster
Sabathia
exhibitions
Boca
Slater
mentions
embarked
Billboard
lads
swaps
migrant
deserving
reminding
determines
affluent
servant
randomly
erected
circulating
quartet
Sorenstam
Improvement
Schilling
capacities
Walnut
stirring
Huff
centric
piles
snatched
Rand
disciplines
staring
continental
drowning
obscenities
logs
outlines
decreases
nailed
consoles
updating
Sinclair
O'Malley
bribes
Alcatel
Vance
condemnation
Planned
dances
leveraged
toes
glorious
Winner
Jam
Salisbury
Benefit
provocative
Mind
counters
Arenas
melting
sway
Beltran
contingency
cylinder
maneuver
Marian
sadly
therapist
pins
Raja
Mon
Hole
pretax
PDT
tailback
Helmand
Olivia
Bullock
variation
newborn
simpler
pleads
Hendrick
defaults
nursery
antique
MOSCOW
weights
counterfeit
Landry
spate
ignorance
landlords
fisheries
noticeable
Kofi
homosexual
owing
Lexus
Brees
Chirac
Tallahassee
Forrest
discs
rampage
Stanton
objection
markers
Peoples
lavish
Legend
Continuing
professionalism
refunds
Eriksson
comics
outperform
Rolls
Die
receivable
informing
concluding
Uzbekistan
adequacy
recess
FSA
creators
Railroad
Gospel
cannabis
MIT
slave
fringe
rats
caretaker
there'sa
distinguish
pageant
telephony
enhances
clout
routed
Elias
Atlas
Neville
surpass
exhaust
Spokesman
Symantec
Computing
arch
dams
figuring
ironic
Employers
Counties
Beautiful
Sacred
Middletown
desperation
Toby
gown
Producers
Britons
Koch
artery
relevance
bored
racked
relegated
footwear
ITV
pleasing
fairway
Utility
perpetrators
homestand
refinance
Pines
Mazda
sizable
limbs
hey
Sonoma
PRN
homosexuality
Wrestling
splash
hijacked
Yorkers
motivate
renamed
escort
deepening
Visual
Allegheny
deteriorated
analytical
Pune
Berg
capitalism
Rory
Pakistanis
gestures
advocating
Belgrade
rotating
Troops
tornadoes
awhile
lazy
Eduardo
sadness
ING
waivers
deadlines
Padilla
toilets
Eva
Brotherhood
Pole
examines
showcasing
abundant
Renee
Print
vacancies
Sounds
Sens.
Toni
erase
Northrop
Fiesta
blitz
worsened
Citing
volley
Annapolis
FTC
insects
Original
Metals
Lucent
champs
astonishing
buffer
groceries
stray
Text
coincide
hesitate
prince
retiree
Callahan
caregivers
industrialized
oversaw
Consequently
Suddenly
Krishna
Underwood
tucked
wrongly
tattoo
competes
pharmacies
altercation
shooters
dictatorship
shortened
Located
wrestler
vacated
Durban
Harrisburg
Benefits
gameplay
Laurent
diversify
Howe
adamant
revolt
con
Governments
grains
biting
uphill
circuits
texting
embargo
perceptions
lodging
Fabio
dubious
nominate
Ramadan
Tools
Units
Claus
regimes
audits
illustrated
Period
Killed
Uttar
Editorial
pulse
prepaid
obscure
Romanian
Kagan
diary
seldom
Memory
Garland
Prius
PRWEB
diarrhea
Cameroon
Briggs
Nutrition
Expect
Kyrgyzstan
o'clock
Funny
Row
prayed
manipulation
Walmart
Enjoy
implicated
lauded
biography
Shapiro
spurt
Parking
emerges
PJ
tubes
Clare
implies
Barron
Wed
saddened
Fear
observer
Lone
urgently
commemorate
austerity
facto
Albion
Damien
Gonzaga
discomfort
Viacom
Write
tunnels
punching
graves
invaded
Courthouse
Surgery
audition
sings
Montoya
flats
Fusion
VEGAS
reasoning
Trek
cloth
danced
Harvest
atrocities
forwarded
cautiously
youthful
Christi
Exeter
residences
Hyatt
5A
airs
Courts
Winchester
arresting
explores
Warsaw
Francois
Anil
Napa
alarms
redshirt
vet
bury
Hanna
pianist
Interestingly
weed
strikers
compensated
brokered
hygiene
hangs
integrates
makeover
fond
Hurley
continents
knowledgeable
#,#
lobbied
harmed
repaid
sunlight
earthquakes
Stacey
leukemia
sliced
intangible
snaps
Nigerians
shout
presenter
disclosures
salon
horsepower
reluctance
lured
frontier
intraday
Delivery
Jimmie
Rockford
greeting
°
Fisheries
Gil
lockout
Logistics
Marriage
beers
Bankruptcy
tilt
Stokes
persist
Nordic
Crossing
Patton
administer
vouchers
outset
victorious
Henrik
Preliminary
Achievement
Titan
Massa
Corzine
Above
towel
reversing
preschool
Firefox
don
Yard
disqualified
##-##-##
l
Ames
fading
prosecuting
Buick
issuer
INDIANAPOLIS
tankers
simultaneous
##p
explicitly
inflationary
Debra
Known
esteem
Groups
oils
farmland
predators
Managers
Lloyds
spells
Wie
civilization
terminate
Superman
shining
sodium
sped
reaffirmed
nitrogen
bolstered
chassis
allowances
Modi
advocated
assemble
Quite
contestant
escalation
hobby
inexperienced
Chamberlain
REUTERS
Spending
obey
underlined
rogue
#:##-#:##
Kathryn
Katy
Calling
entertained
Costs
quantitative
avert
exclusion
veterinary
Myrtle
Victims
regulating
static
Clifton
Hands
Holliday
briefs
communal
Cooke
Deposit
poem
Girardi
Sosa
Cho
Assam
Sotomayor
Parent
HS
cheek
Audit
mosques
feud
Hubbard
Nassau
SUVs
arraignment
Workshop
escalated
congratulated
knowingly
humidity
horn
flashing
UNICEF
bumped
falsely
obscenity
Scot
laborers
inject
bend
Candidates
Streets
Jenna
Pryor
unreasonable
reap
Kit
Via
bogus
Collingwood
disposable
Nikki
CPR
r
scratched
strips
Color
Scheme
Colbert
syndicated
Dhaka
mayors
diameter
Grady
copying
Grid
Depending
bundled
Cyber
spying
cane
Matsui
Echo
restricting
optic
Lorenzo
Heinz
diploma
departing
texts
Dispatch
Huron
jackpot
modernization
Mikhail
Ash
override
Hindi
guerrilla
knives
rob
hears
gunned
unearned
Subscribe
westbound
Botswana
Owls
lame
Hutchison
Belle
boosts
Rajasthan
nationalist
Dems
SB
SF
interventions
di
impasse
Religious
NA
biased
ruins
illustrates
Producer
Landis
Relay
Journalists
underscores
obliged
Employee
Soriano
Connection
Berger
Monmouth
Included
conspiring
Juvenile
adversity
Terrorism
Hello
soar
preparedness
Anniversary
Ad
Leach
Ballet
Anfield
Graduate
bodily
confronting
Curt
exemptions
Mar.
Fitzpatrick
PITTSBURGH
Carmen
Advisor
bogeys
Gang
GCC
Saban
adjourned
Saturn
Clooney
resumption
browsing
Lakeland
overcoming
Amtrak
Toy
NET
deposited
mentioning
opting
CSI
executions
Fest
rests
KU
Trend
flush
despair
bundle
Dempsey
Pond
Schedule
UNITED
Cary
Harlem
Latest
Starr
Christensen
Clyde
ashamed
Chico
vest
WHAT
dwindling
Tyrone
Warning
ER
clinching
UM
UPA
provoked
Schwab
colt
Warne
Shows
FIA
cheapest
Lawyer
Von
insane
sourcing
interoperability
Rancho
depths
Ovechkin
vacations
Beasley
Srinagar
stricter
legends
Jen
Archer
Residential
systemic
swollen
Quarterback
Jarvis
Allah
OEM
Joanne
Mineral
Orton
seriousness
Solid
Soldier
Goa
swimmer
Agents
yarder
circular
gentleman
Nina
rupee
stabilizing
Clair
awe
Agassi
pirate
MINNEAPOLIS
DOT
Pipeline
judgments
Daddy
DuPont
outcry
hallway
Namibia
colony
Romeo
Makes
handsome
replacements
bulletin
bricks
wildfires
constituencies
Bing
gatherings
mutually
brushed
Terrace
bumps
Corn
biofuels
disadvantaged
arbitrary
divert
richer
fifteen
Macau
Finley
Brain
Marino
sunk
apartheid
Pew
dinners
emphasizes
Lakewood
bells
rehearsal
menus
psychiatrist
offended
fur
unfamiliar
Friend
bowls
specials
balloons
depart
Mogadishu
goodness
challengers
Zelaya
meteorologist
handicap
hepatitis
condominium
videotape
geography
clocked
devil
booster
sexuality
upload
tipping
Mustang
equals
conserve
SANTA
subscriptions
snowfall
utmost
bites
pundits
Erdogan
spans
prosperous
Fellowship
Serie
Drilling
tempted
Rabbi
separating
stature
Teixeira
Bart
dimensions
Au
oust
heel
tiebreaker
Loyola
compulsory
Marshal
pubs
fours
Grossman
kilograms
hrs
Imaging
paraphernalia
Humphrey
screamed
crane
Gillard
dentist
embryonic
pertaining
Knowing
Therapeutics
loudly
valuations
AIM
Colleen
Sen
upwards
phased
Topeka
muster
Milk
Fishing
Artest
Weight
obsession
Shelley
scenic
angles
Bean
Sawyer
asphalt
disregard
fictional
doctrine
pedal
Mega
disturbance
Asheville
scales
2A
Blackwater
Appropriations
chess
Haynes
Bankers
emphasizing
eastbound
##K
coastline
Northeastern
Pharmacy
Fidelity
inherently
clan
Perdue
peaks
Hip
tremendously
Syed
Brunei
Spot
exporting
frightened
Abe
ideals
stabilized
SaaS
PHOENIX
confidentiality
affection
feast
positives
convergence
lump
endurance
Novartis
offline
encryption
stemmed
Kyodo
Aging
automobiles
ripe
matchups
Sonny
ceremonial
modeled
Khartoum
educator
detainee
visually
IF
perspectives
Uptrend
Southwestern
deduction
antenna
Tammy
TIM
dull
teaming
showcased
Somebody
CNW
Cork
layoff
polished
boomers
raging
PCB
renting
boil
Halliburton
Retailers
Turin
spelled
reclaim
footed
censorship
extortion
#.##m
sleek
fearful
Hosni
succeeds
Gillespie
weddings
Rene
Durbin
Sofia
rat
masked
Redknapp
Retired
authenticity
bruises
recovers
stereo
dietary
pinpoint
crippled
discouraged
blogging
infielder
Gasol
sorted
tendon
routing
Abuja
sa
Okay
Francona
botched
Bradshaw
backhand
intimidating
validation
procedural
knit
Payment
Caterpillar
intimidated
Territory
hay
mosquito
O'Connell
Prospect
waits
exhibitors
Wait
Lo
Napolitano
unilateral
accessory
Theresa
exaggerated
invention
username
observing
openness
Crowe
Resistance
booed
mathematics
abstract
Wyatt
domination
volcanic
sophomores
manpower
packet
Estrada
slaves
Vera
Prophet
salute
Ismail
Duty
liberation
Indo
Bellevue
Squad
Bombers
Kellogg
Lionel
oval
roommate
###st
Cayman
Kohl
lbs
McDermott
Lancashire
Achilles
periodically
traits
Ninth
CCTV
Bridgeport
textbooks
interpret
inputs
curator
McNair
Ghraib
Lucie
API
raiser
Organic
outlining
Ritter
GBP
modestly
signings
descended
Ernest
Malawi
Ochoa
horns
needle
Newspaper
greenback
Sheik
Aquino
Stefan
Build
+#-###-###-####
MAY
Kapoor
Midway
profanities
rentals
nutrients
Anwar
Billion
repairing
presumed
Jamaican
PAC
Personally
adjustable
daring
sung
explode
Calendar
Warrior
counterterrorism
Pension
Jeanne
Resident
aids
cruising
infusion
Testing
eyeing
Judges
odor
Sheehan
Alpine
divers
ERP
shedding
prevalence
mat
grapes
coated
accusation
quitting
workload
ORLEANS
Found
Figure
Guitar
Marquez
stabilization
concentrations
Donations
Jaguar
hid
Gunners
ambush
multiplayer
Larsen
Tribunal
puppy
Euronext
watchers
Illini
Option
NOW
LSE
Closing
solicit
LOUIS
Scots
Guests
birdied
Rockefeller
insulting
Mateo
tones
Oslo
engulfed
cowboy
Ming
appellate
Ankara
grading
perfection
derail
Abdel
##pm
Countrywide
Scripps
Stones
Cramer
ineligible
vicinity
Cesar
refrigerator
onstage
decorations
undocumented
witnessing
burgeoning
Map
sunset
Arms
Arrested
miniature
frantic
Chatham
drank
Darryl
Sustainable
predecessors
promoters
depicting
proponents
cutbacks
guru
jails
McFadden
Blanco
Han
widen
Animals
MI
freak
align
stalls
Galveston
lid
warranted
Bethel
queries
rendering
revamp
tasked
Leahy
invade
PV
Transfer
milestones
Believe
embark
Pensacola
Maui
rude
saturated
NGO
depicted
Traditional
McMillan
Billups
banged
studded
OH
Birds
rendition
Latvia
applaud
unlock
slalom
Govt
Bio
Thames
niece
Alumni
balcony
flaw
{
Barbour
Babcock
contemplated
crossings
earnest
Headquarters
haunted
radios
forehand
Champ
DR
AMA
Augustine
incumbents
buddies
accommodations
multimillion
lifestyles
vigorous
MT
OU
RV
Dyer
Telephone
resilience
validity
###M
constituted
Bottom
Delgado
onslaught
gritty
Cecil
badge
Including
warmth
lashed
MISSED
wolves
Andreas
plaza
Sophie
dispose
fanned
Navarro
Written
cornerstone
roses
Ossetia
interfaces
Blackpool
coping
Najaf
Miley
impacting
Downey
redistribution
divisive
SBC
chairperson
clarified
expiry
prized
TNA
VENTURE
Swat
Potential
worm
Truman
tuna
cockpit
Airline
bedrooms
plunging
resurgence
aiding
Stoudemire
Surely
vulgar
intermission
vulnerabilities
converged
Abrams
BS
pale
devote
Newsday
foreseeable
Strategies
amassed
Dhoni
nationality
Facing
shortcomings
crap
CVS
Wynn
retract
evacuees
compounded
debuts
Clive
Wedding
render
Facts
LIVE
Tillman
rep
Fukushima
silk
Terror
Mora
Newsletter
addicted
airborne
u
Desmond
jeopardize
Vehicles
Chain
abdominal
debacle
Sunrise
tract
Flaherty
Fat
Wrigley
factual
watering
Aboriginal
stalemate
Nymex
expedition
Unemployment
substantive
Burrell
tumble
Seminoles
COLUMBUS
terrified
Integration
courageous
fertility
Pulitzer
rationale
Dealers
horizontal
Architecture
ballistic
Sixty
Olive
joking
correspondence
cherry
bagged
citations
Built
AARP
sunglasses
cardboard
Heaven
detectors
mechanic
Edmonds
shrugged
Gain
Watching
Clubs
Features
scoop
indecent
geographical
Editors
reacting
inhabitants
Gina
Café
Eclipse
gum
noble
MC
Laws
motorist
Gould
mediocre
CMS
cautions
Orissa
bins
Lim
McAfee
Shia
creature
strikeout
curiosity
manipulated
nonpartisan
FSU
abandoning
ambassadors
taxed
motto
financials
annum
Sapa
tentatively
midweek
buffet
towering
ashore
softer
foolish
holed
Barre
guarding
CF
deflation
Charge
Stoppers
Mayfield
heroic
overthrow
ecological
Reality
Efforts
lemon
criticisms
Forrester
Executives
Moose
turbulent
folded
Everest
Lily
undermining
width
SUN
canceling
quotas
NRL
wartime
flourish
McDonnell
REBOUND
###km
Deepwater
remembering
Opens
budgeted
marginally
Sub
bush
Sirius
laced
offending
attendants
Homer
sq
CM
injections
Brodeur
meaningless
Drogba
Angus
punishing
coma
Decision
nuisance
Mays
wagon
stocked
Freddy
Survivors
Listen
shiny
Italians
escaping
Takes
Accountability
beneficiary
umpires
Valdez
Seeing
TI
refreshments
reprinted
francs
endeavors
births
slopes
declares
Kilpatrick
principally
Sundance
erratic
Janice
Breeders
Shi'ite
Chocolate
Apache
Turning
Petersen
brewing
selfish
Del.
Saratoga
examinations
Gingrich
CHRIS
referral
Coles
synergies
restrictive
defunct
frontman
collapsing
prominence
Walking
wedge
compliment
wrecked
spawned
mentoring
gusts
varies
Established
intervened
sellout
rod
seizures
worsen
Effective
Collegiate
Nicklaus
bailed
Organizations
coffin
attach
vivid
Presley
##M
McChrystal
Philippe
forestry
faults
Ghost
Yadav
disruptive
rib
Yushchenko
aforementioned
Aids
Activity
consolidating
Carrier
Webcast
taxing
O'Sullivan
Session
wit
mitigation
midterm
subpoena
Catch
Shelter
Physical
Mahdi
perks
screenplay
toughness
angel
inaugurated
exited
informant
alignment
mistakenly
insistence
Assange
pegged
diminish
dent
Andres
Allawi
Issue
Judd
Â
Classes
soybeans
busted
McCormack
pal
MR
glamor
toast
accrued
Yamaha
souls
harvesting
regulars
Kirkuk
Vic
presiding
lumber
rocker
Speech
Aircraft
Sylvia
FY
autonomous
Rihanna
monks
unmatched
Avatar
withholding
Hartley
hopefuls
standby
Treasuries
unrealistic
Rudolph
Display
interpreter
Fifteen
outsiders
PS
Protesters
Bharti
malware
Choi
veterinarian
min
Hearing
socio
Ways
Doing
Roe
crossover
Log
melt
chilly
Branson
Jindal
Harare
domestically
empowerment
chilling
skirt
Interview
Carla
Jaime
Understanding
Indoor
Landing
scream
Fujitsu
lamented
Wholesale
cakes
spiked
Declaration
Lampard
fledgling
painter
aesthetic
constructing
appraisal
Farmington
CFL
storey
Wilkins
swallow
Lyle
Pietersen
Conditions
Gamecocks
elephants
bakery
versatility
Vail
sketch
vulgarities
pardon
reflective
compassionate
Limbaugh
Viktor
locking
neo
Admiral
suspensions
Specialist
burglaries
watershed
Fly
jammed
LTE
Messi
Binghamton
maternal
authentication
windy
####-##-##
evidenced
Cypress
Exclusive
activate
Opportunities
Endeavour
glamorous
recognizable
favorably
auctioned
des
lent
Fighter
Preservation
biodiesel
desires
afloat
wolf
Marquis
Alito
nails
Goodyear
instituted
Developer
multitude
onions
skiers
simplicity
indefinite
correlation
Corpus
Ruben
Gayle
haired
Hillsborough
buoyed
coats
pesticides
compatibility
Keegan
forgiveness
fixes
beleaguered
Anbar
Shipping
Fork
DaimlerChrysler
scanner
storing
revered
shades
graft
hesitant
gunpoint
Kayla
bi
Opinion
replica
Naomi
begging
Peterborough
reside
Easton
tailor
SEOUL
occupying
Boxer
Patient
Griffey
UA
wielding
proportions
oncology
blonde
doll
Westchester
fulfillment
Handicap
Nev.
orchestrated
resemble
ducks
sprayed
Cornwall
Strait
Steinbrenner
Roach
Swanson
tossing
Deferred
Plain
transmit
Blind
Lawn
Malibu
kidding
HAVE
enrich
Words
Flintoff
forbidden
attribute
Garza
Hitachi
messy
harassed
throughput
Prescott
firsthand
Jasper
Woodland
rethink
dissolved
Estonia
cliff
Blackstone
fewest
Amherst
stainless
SG
vans
raft
}
Bryce
coffers
manned
Theft
Hebrew
Turns
Sinai
rusher
interchange
Goes
Trooper
mountainous
stirred
Ajax
robbing
HTML
Halo
Adventure
reps
capping
unrestricted
unlucky
Goals
tumbling
husbands
Cassidy
Craft
monkey
backstage
ambulances
Rey
Grants
tin
ARM
tuning
mornings
Concerns
collaborating
traps
shadows
outburst
Suspect
Origin
sparkling
Burris
Barbados
Hal
1A
seals
Gustav
bees
Schiavo
ruler
historians
Kia
clerics
MSN
Pier
pat
shocks
prom
Hair
Leonardo
wisely
harvested
smashing
inflows
spearheaded
luxurious
Thatcher
invests
soybean
extras
beard
Locke
CV
portraits
surcharge
Holmgren
Rowland
evaluations
focal
Greer
Trying
trucking
Universe
nicknamed
reproductive
Wealth
cozy
Own
Skills
Score
marquee
racers
Theo
induction
devised
materialize
fellowship
vain
Blackwell
orderly
Provider
Tire
petty
bargains
stained
slippery
oak
skated
Riyadh
epicenter
Vargas
Merchant
postings
Album
filly
solicitor
Swansea
SBA
billboards
Diocese
External
capsule
Benazir
Taj
dues
Meridian
Doors
Shadow
entrants
sacrificed
edging
Lotus
safest
Broadcast
Andersen
fusion
managerial
lays
EADS
Meyers
Monitoring
iPods
reopening
banana
IC
deterrent
Parcells
Raw
Bluff
hedged
unfavorable
hovering
notebooks
Expert
intersections
Middlesex
striving
#Q##
assert
overdose
traveler
Lenovo
Rowan
Dental
MLA
Blunt
Adm.
Colleges
duel
CE
diversion
Bolt
Sand
Faculty
Nicky
discarded
choked
demographics
swearing
patron
Underground
texture
Electricity
Gomes
Lombardi
Inland
Bearcats
Harmon
defect
avail
recycle
Lithuania
upstream
tampering
fractures
Infosys
Estates
Enough
Turks
Bingo
inactive
rods
ideally
vocational
playback
accolades
kidnappers
Furniture
sands
REIT
Burnley
harmless
Guzman
Flagrant
showcases
unhealthy
salesman
derailed
Scranton
malpractice
Chung
slack
CAN
defamation
Roanoke
lopsided
Automobile
designate
Norm
Fry
Pioneers
looting
Rangel
Compliance
nominal
Abramoff
backfield
reconcile
assortment
utilizes
Means
relievers
learns
Dreams
Forestry
TIME
Mendoza
Benchmark
mischief
Geological
robotic
evasion
longevity
selectors
brightest
ubiquitous
sequences
CLEVELAND
biologist
Gul
Oz
Ambulance
roared
calcium
lithium
Russo
intensify
Insider
brisk
Antoine
CES
Kalamazoo
exits
depot
cancellations
Specialty
quirky
Looks
logistical
Opel
Challenger
stockpiles
Celsius
Liberties
groom
Alameda
OECD
Lot
Lunch
Salmon
Consortium
minivan
Flow
fairy
Lil
na
dough
surpassing
endorsements
admiration
Camera
parity
defiance
Various
Humanity
praising
bacon
#:##.#
confinement
pathway
awake
Paige
Commodity
Salinas
Decatur
GS
contemplating
sourced
SOUTH
marketer
paycheck
compression
resides
millionaire
redesigned
cache
Sage
differentiate
crossbar
Guthrie
##million
Offshore
Wilcox
homage
dogged
tasty
bribe
Workforce
forty
bureaucratic
sculptures
Hoosiers
Maya
query
insert
reproduce
precinct
Orr
Gilmore
Goldstein
enjoyment
AMEX
Bakersfield
peripheral
cynical
CAD
dividing
strengthens
Pepper
cries
Satyam
Flower
Survivor
Butt
Export
allotted
Hits
O'Leary
fries
Teddy
sanction
tempered
penned
microwave
defied
chatting
populous
goers
arrogant
Garrison
Novell
Baltic
uneven
planets
embryos
Icahn
negligent
WE
fencing
plumbing
improvised
noisy
activism
looms
purported
knot
Anton
manipulate
vegetation
Places
forfeit
dorm
prostitutes
hybrids
Lifetime
EP
Warehouse
VI
statistically
snapshot
PNC
Olivier
Elk
Taser
Latinos
borrowings
deductible
IndyCar
autographs
Corning
pullback
resellers
Thorpe
Compensation
EMI
reinsurance
sitcom
informative
Ravi
Tough
importing
stumbling
utter
Ultra
facilitating
Kara
redundant
entitlement
cooled
chin
convict
heed
Roundup
staffed
drone
Robson
gymnastics
dime
Poole
Duane
journals
remnants
industrials
Sutter
groomed
monsoon
prohibiting
startling
groundout
Jintao
groundwater
lagging
foil
Crazy
groove
gem
ancestors
racer
Items
Female
truthful
Microsystems
dangerously
coaster
temper
Cups
Sherry
Offensive
Shenzhen
Evidence
condoms
Quartet
Stream
lamb
WiFi
Door
Fraud
allocate
airspace
afforded
Therapy
Brig
Unions
tabled
Morse
Suites
Evergreen
Identity
Version
McGrady
O.
Eighth
diversification
bacterial
acknowledgment
Critical
doubted
Fool
rescheduled
Whoever
Utley
fiercely
Kaufman
macro
Chidambaram
fend
Enhanced
Bloomfield
Vazquez
Weis
levee
entrenched
benches
officiating
Wheat
paints
Exit
embassies
rollout
shaft
dome
Aiken
Butch
Marketplace
MAN
complied
worms
announcer
skinny
Moments
biomass
Rosenberg
Flat
probing
glucose
ITS
mosquitoes
chunks
Goodwill
cereal
Sigma
encompasses
acreage
Ware
logos
www.zawya.com
Trailing
stern
Jurors
Naturally
CW
specification
Crocker
hearted
lessen
economical
Bon
Rehabilitation
Newfoundland
Saginaw
budgetary
researched
7pm
Galloway
Ah
Cover
Zito
Ayatollah
Jacobson
Straight
Fax
Emery
crab
mastermind
mesh
dispatcher
fingerprints
Orchard
Cellular
Richland
parcels
weeds
Promotion
PST
Hurt
rift
hospice
sect
restrained
Brit
dolls
villain
Corbett
sticker
vis
Magna
8pm
molecule
Dolan
hoops
Maintenance
Count
CHARLOTTE
budgeting
Samoa
bouts
jams
HE
signage
Miracle
Cadbury
Figures
Gillette
Flag
magnet
Obasanjo
Spurrier
reins
hectic
Vicki
drifted
waning
biopharmaceutical
grinding
Nifty
Mostly
tick
Eyes
Leisure
streamlined
vocalist
propel
senses
Sabah
coating
prominently
modular
sharks
UNLV
evangelical
Practices
arranging
interfering
flashed
scams
oz
bee
princess
Angle
bureaucrats
Sonic
cyclone
Shin
abnormal
condemning
Nicaragua
extinction
Airborne
completeness
wardrobe
tendered
Variety
P###
detrimental
+1
livelihood
administrations
thwart
copied
issuers
Herb
candle
resembles
morality
DB
Viagra
Mittal
Hokies
remedies
boasted
ham
brunt
handcuffed
Giambi
histories
dipping
5pm
Bomb
Individuals
Create
Lib
ii
NI
Lubbock
hotline
drift
alarmed
TiVo
bushel
Fountain
Luna
charismatic
thwarted
Unlimited
removes
Kenseth
guardian
amusement
Maori
CHP
Scores
Messenger
fray
Sachin
weekday
Westfield
Spice
Rider
Rios
stigma
pumpkin
verse
Bella
unfold
slows
accessibility
gutted
Choir
wiring
Elder
Losing
Apartments
Werner
Heads
liquidation
Briton
Hodge
Eileen
jack
sober
Bike
GMAC
coronary
Genesis
Alvin
Culver
bash
Hobbs
Forks
trajectory
Constable
obligated
Decker
Bellamy
CU
coli
Dwyane
diets
disagreements
Bosnian
portrayal
Islamists
Bieber
melted
goat
gourmet
mourners
WNBA
Trichet
patio
Matrix
Helping
upright
battalion
Swimming
geological
terminology
eruption
SINGAPORE
warrior
Ministries
airwaves
inadvertently
lenses
Important
windfall
Henson
protracted
amounting
grin
Eastwood
pledging
Releases
Crouch
Monty
Geoffrey
calorie
Russa
DNR
Softball
quad
Harmony
bailouts
characteristic
Discover
taller
CR
footballer
succeeding
fumbles
conveyed
precincts
perjury
recorder
Journey
McPherson
prowess
divisional
baht
3M
closings
U2
Financing
Leyland
pregame
Excel
glow
Amazing
poems
doom
exploits
hostility
terrifying
gloom
Bret
naive
Barak
3s
calmly
guts
bruising
Terrence
Wife
marshal
precipitation
Anand
Bono
Suicide
zoom
tissues
numbered
Hop
ha
Putting
Depreciation
ailments
mobilize
Garry
conditioned
prohibition
salmonella
larceny
Regular
PKK
Renewable
ashes
explanations
topple
Advani
Sanjay
Staten
IDF
Stevie
sync
believers
SUB
Beta
Legends
Redding
##GB
Broken
MONTREAL
Cheshire
Zimbabwean
Rae
NDA
Saeed
lamp
U##
grievances
hedging
misguided
Blockbuster
PML
sticky
Saab
Colby
iPhones
grad
Tours
Elgin
wooded
murderer
maturing
Wiley
unfolding
Trustee
Bowie
antics
fundraisers
scaling
unmanned
Pub
outpatient
sausage
McKenna
Related
DHS
demeanor
Movies
Redwood
Peshawar
paramount
crawl
Drama
dissidents
Xerox
Laguna
Polanski
Custom
mascot
suspending
possessed
GlaxoSmithKline
misled
Gym
weeklong
culprit
swam
grieving
limbo
doctorate
Glory
Mixed
bassist
severed
Noon
empowered
benign
Flu
ANZ
algae
revisit
GO
cosmetics
ASA
Gilani
fisherman
unarmed
bonding
Shreveport
Coors
Aceh
chopped
Kanye
hi
possesses
Shaquille
genres
boating
joints
Increased
Stephenson
appalling
Treasure
Baucus
CPU
Kan
Trey
soy
Californians
heats
sealing
Sherwood
Client
O2
steered
Moyer
Eliot
hardcore
##.##am
profiling
extraction
wool
quell
forma
hugged
Gaston
roadmap
QC
recounted
hoc
trendy
Suburban
slurs
Jessie
Evolution
citation
Berman
Numbers
hurled
Patch
Rosen
testifying
divine
Hospitality
BERLIN
Grumman
Dickson
castle
CDMA
Lynne
Gus
Hon
outsourced
mattered
Physicians
GI
Peabody
Bang
dismissing
remanded
waged
lecturer
rub
onion
unconventional
blades
Wallabies
flop
Viet
BRUSSELS
LONG
throne
junction
Sindh
intervals
appropriations
Evansville
rigid
deeds
Mormon
Featuring
heaviest
storied
dismantle
staffer
Marseille
beast
sabotage
textbook
Held
quickest
Beef
Framework
distractions
Reporters
#'#
Paraguay
Laurence
bathrooms
summed
Munster
comparative
rocking
Burt
Kearney
outnumbered
Links
RS
leaderboard
Loop
deficiencies
fabrics
surreal
Cos.
Patil
finisher
Geographic
Caleb
Spector
Pretoria
ASSOCIATED
crippling
Kibaki
defiant
cocoa
Pressure
Passengers
IPTV
Quran
pioneered
Processing
Hess
Mavs
construed
SQL
dignitaries
Reservations
deserted
excel
Advocates
Clegg
halting
probes
Chechnya
stickers
Kroger
pullout
ordinances
filtering
Waterford
Leah
dude
Clearwater
CPA
Seri
mindful
airstrikes
bpd
KONG
Moderate
concerted
attain
Andrei
formulation
imply
plague
dazzling
Egyptians
filibuster
Hybrid
authorizing
Angie
likewise
devotion
Wanted
Willow
semis
cottage
flashes
reel
replicate
unlocked
backpack
browse
traffickers
IST
Failure
ethnicity
mantra
brilliantly
##.##.####
Panther
funk
newsroom
institutes
accumulation
scanners
McNamara
insecurity
There'sa
BCCI
Thirteen
BREAKING
hauling
IU
VW
rodeo
Penney
blended
Beyonce
jihad
JERUSALEM
marrow
marital
creations
Mexicans
Tasmania
detector
bicycles
insure
Maher
ROI
Moroccan
exploiting
Ned
kindness
JetBlue
+#.#
rooting
handicapped
blasting
appointing
Seneca
ME
circumstance
avalanche
P##
Stuttgart
tycoon
Positive
OC
Tejada
Spectrum
Him
longstanding
Leighton
Roush
deed
Professionals
Skip
IA
tiles
stereotypes
Ace
Ogden
Travelers
Bid
communicated
Ganguly
Irene
Hydro
Vanguard
queue
excise
bowed
Tempe
dashed
scenery
greatness
invitations
Mock
cheat
tri
culmination
clears
elevation
Pilots
combating
withdrawals
Benoit
vomiting
Karim
renovate
Maloney
swear
upped
Institutional
ion
SK
liquids
herbs
Eisenhower
Melinda
Tobago
gears
Gala
eats
duplicate
unfinished
Arrow
Ha
Forecast
netting
favoring
Cheltenham
hereof
Vioxx
mired
temptation
lookout
RALEIGH
endowment
Parenthood
TNT
hassle
Haryana
arteries
persecution
suppress
sci
coincided
clarification
Cristiano
Rank
sensing
amusing
manually
Merritt
Bynum
heir
Bergen
Jeremiah
sleeve
HONG
garner
chapel
Arsene
getaway
Gilchrist
Juarez
flare
chants
Sonics
adjoining
slayings
Woodson
Woodstock
sniper
shortest
Ticketmaster
Zambrano
Defender
stun
translator
#x###
Address
Adds
molestation
Used
intrusion
foray
gymnasium
sparks
waterways
convene
customize
peek
affordability
Kamal
genome
summers
clusters
provoking
Reserves
flawless
buckets
apprehended
composure
Ambrose
Loading
expansive
Sasha
Greenpeace
quantum
XML
Tulane
Darlington
Tips
Male
flair
eyebrows
Heineken
Fr
contending
pots
pulp
scripts
Bone
submerged
Luongo
OJ
teachings
Hanoi
warmed
tame
hers
timer
Consultants
overseen
madness
Macon
threads
wee
Aires
voyage
Meg
sleeves
Kurdistan
nightly
cooks
bracing
addicts
Managed
CSU
A##
Yorker
outsider
breathtaking
Forex
corridors
patriotism
exemplary
beforehand
wandering
Homestead
ordinator
rigged
Hilary
seizing
Patti
Spike
SO
Secondly
avenue
wording
Magistrates
philosophical
Corruption
Daryl
senate
marble
Jonny
establishes
Knowles
barracks
muddy
nominating
draped
Hodges
Flanagan
cervical
mogul
extraordinarily
screw
Pain
##mm
Newsweek
Frankie
SR
Aristide
upstate
storyline
middleweight
ratification
Cod
registrations
GAO
WBC
Jacqueline
pessimistic
Feed
Monthly
Kiwi
Senegal
Zac
blatant
Sichuan
pathetic
Mia
manageable
strives
resentment
Comic
bookstore
routines
Quad
moderators
M2
juveniles
amidst
License
Huang
louder
Straits
storytelling
escalate
BI
Taxes
Detention
Frye
pavilion
appreciates
vested
notoriously
reacts
Dungy
moderately
charred
Caucus
Eat
deductions
ramps
playwright
isolate
cheated
Kline
AUSTIN
spinach
Procter
disappearing
Zachary
Nouri
Adults
lunches
Ritz
Auditor
Alley
resigning
Networking
Keystone
SEO
biblical
cyclist
precautionary
Bach
Hurdle
Duff
sweeps
scalability
conferencing
spraying
gloomy
friction
stove
Seasons
carriage
uneasy
popcorn
improbable
Healy
impressions
punter
repercussions
hormones
hog
Epstein
Olympian
Jody
Trans
ANDREW
Kern
NAB
Janeiro
Buenos
curling
immensely
Butte
parishes
Sheppard
Ayers
simulated
levees
Mahindra
endangering
impetus
AMC
assassinated
prestige
bake
Polls
deepen
humiliation
hails
wrestle
oceans
Italia
incur
attachment
Conley
......
unintended
disappoint
discriminatory
viagra
MANILA
DH
Marlon
stewardship
reset
syrup
Blaine
stubborn
ElBaradei
Apr.
wow
MCI
vaccinated
ticker
dissident
monumental
loyalists
Cage
persona
Normal
N##
Hurd
IR
partying
Hammer
foregoing
Paribas
recoup
condos
earmarks
upsets
waive
Timberlake
recruiters
warriors
altering
unpleasant
kissing
Pinnacle
Denton
Confederation
Scarborough
billboard
megawatt
Fairbanks
settles
Gasoline
stocking
Easley
reproduction
Kirsten
McLeod
SYDNEY
Piniella
Maguire
visibly
Bragg
Christy
decidedly
Norwood
Dirty
Bacon
Barca
Pendleton
Jamison
Seton
Babe
Bowls
ignorant
Rosie
Audrey
HDTV
nonprofits
Sitting
TARP
Discuss
Electrical
Conner
turtles
Bhd
helpless
locating
Covington
spills
Cllr
Paterno
#.#.#
weekdays
snakes
Grayson
suck
Gallup
protestors
Rocket
conform
symposium
Hardin
multibillion
disgruntled
darker
disposed
Koizumi
penetrate
Janata
randomized
ripping
competence
ticking
piling
Banner
Roh
Luck
Imam
Barrow
teamwork
Langley
monarchy
trimming
Danville
Religion
swell
ramifications
nowadays
pollutants
RC
disbelief
Mangini
NASHVILLE
LGBT
muted
Wanderers
diagnostics
Mattel
combo
Jade
Timor
Granite
sulfur
capitalist
wards
Tracey
Tevez
testosterone
motors
playmaker
avian
OTHER
Locker
vetoed
Hasselbeck
untouched
mammoth
undervalued
gadget
eternal
intercept
gainers
Viking
Sami
Remote
abiding
Smithsonian
collaborated
honeymoon
carmaker
flavored
Mobility
Panhandle
JOE
ventilation
Hector
Evil
Fritz
conversions
Conan
Mathis
lions
sperm
heartbreaking
Whistler
PE
sideways
waking
squandered
Secretariat
dwelling
shoreline
breasts
strife
earners
chili
dominates
Fit
Croatian
Igor
Fee
1B
hacking
gel
roundup
wrongful
propane
Amin
vinyl
suicidal
dont
pity
Bombardier
Dearborn
Thankfully
betrayed
Confidence
torque
Candy
echo
Soto
Weinstein
tabs
warehouses
MB
merchandising
Macedonia
DOE
borrower
Gundy
Medford
cartels
overlook
Cousins
provoke
unfolded
extracted
overtake
bless
fest
Coun
authoritarian
Diet
lush
Witness
jumpers
regimen
Facilities
mentors
audited
Hay
Distributed
upsetting
Wyeth
redeem
Answer
Pure
zip
towels
merging
drying
imbalance
apparatus
#-#/#
Didier
Chemicals
LAN
migrate
TAMPA
Wellness
RAM
eclectic
Guards
Contemporary
fetch
discontent
Areas
Vinci
Diversity
Fran
fats
razor
Tip
Donnelly
Lula
Forever
Basel
Certification
shutouts
Longoria
Guillermo
stagnant
twists
dedicate
Iqbal
6pm
windshield
Councilwoman
arises
Permanent
Rusty
thugs
Cowen
stalking
Settlement
Donnie
Grass
depressing
guitars
hoax
Val
writings
racially
mater
insults
roar
Oversight
voucher
WSU
Freeport
Barlow
Whitaker
pretending
prostitute
uncover
Thu
JOSE
exploding
Granholm
radically
Chandigarh
PSA
choking
Protestant
endorsing
Miliband
hose
Raikkonen
maternity
Helsinki
affirmative
bubbles
quiz
Rehman
littered
Daimler
diabetic
crumbling
Hatton
ozone
disperse
RJ
finishers
Keating
treasures
No.1
cholera
govt
sorting
Razorbacks
bully
Hays
Lucia
blistering
climbs
linear
ruthless
FRANKFURT
SACRAMENTO
disrupting
occupational
pragmatic
Yen
eroded
Kaine
desks
plowed
cue
Brookfield
Beaumont
Moyes
Porto
entertainer
Paddy
freshly
kidnap
CONTACT
Housewives
riddled
humane
Sehwag
Anybody
inundated
UMass
Rubio
BMO
textiles
allergies
Spotlight
lofty
ecstatic
sibling
slum
trapping
Yellowstone
unveils
Gee
Mozambique
fliers
Dukes
nausea
carts
calculating
Battery
Disclaimer
athleticism
Pollard
orthopedic
Blatter
needles
Lords
DePaul
shit
Foot
payday
misunderstanding
vitamins
bordering
spacious
dismantling
evacuations
frustrations
roadways
teller
McIntyre
ponds
currents
Layton
novice
mouths
jerk
Plenty
instincts
Malkin
battleground
wrestled
mediator
Desperate
glowing
CDT
Referring
KABUL
Modesto
Kirkland
Intermediate
Teaching
Worthington
Harden
spat
deception
Maynard
instinct
alma
ticked
casts
IQ
skipping
Frist
DSL
Springsteen
Feldman
Alistair
Lea
fledged
brutally
Floor
AMR
Amos
Hutton
Posey
mismanagement
SWAT
Costco
CME
forging
Regis
Portman
Blackberry
burger
Sahara
stitches
Kessler
Activision
beams
simplified
Smoke
Filipinos
tweets
outshot
oppression
teleconference
groundwork
visionary
ing
Dravid
perceive
Gear
hinder
hiatus
Eddy
airlifted
energized
lifecycle
welterweight
breakup
departures
suicides
arrogance
chic
qualifies
idiot
disarm
Interfax
Economist
Runner
responsibly
den
GmbH
modernize
populist
smugglers
Fielder
guessed
Congratulations
Turnpike
Selected
Hook
covert
Sanofi
Historically
fashionable
##.##pm
Regan
Tens
Granted
Nader
Accord
pesos
Location
sickness
sphere
NOAA
blackout
carnage
remodeling
Johansson
medieval
depicts
Preakness
McGregor
Buying
Kmart
Persons
oxide
dramas
buyback
ballroom
antibodies
Finch
Sinn
emulate
Receives
vampire
OFF
vending
Sebastien
servicemen
¿
tempting
Personnel
Garfield
Discussion
dialysis
-##.#
carded
campers
internationals
knocks
Linden
drifting
ATV
illusion
Protect
cautionary
adolescents
Feinstein
Anheuser
alias
taps
Taxpayers
lapse
Bowers
tolls
Len
freeing
Beard
Archive
props
roasted
Weighted
anonymously
differing
menace
ROBERT
Lacey
Measure
##pc
minimizing
tuberculosis
Watford
Exports
annoyed
Papa
liners
Inquirer
fostering
Parrish
congratulations
Lu
ceased
Mix
hamper
landscapes
harassing
hypertension
culminated
Terra
tattoos
repression
Furyk
Chu
assign
Frankly
Yusuf
Wally
Spielberg
campaigners
Ill
disposition
IPOs
JFK
Intelligent
uproar
Bethesda
Mouse
####.#
fork
stump
instructional
ATS
Called
harass
agility
pilgrimage
Hardware
variables
mobilized
Franken
sailor
unsustainable
empowering
McKinley
IPS
Files
TN
Gannett
disclosing
suppression
succumbed
Ewing
fluids
Poverty
Safari
Cause
haunt
Brigham
essays
Wikipedia
Sleep
fury
whiskey
Rest
hierarchy
MO
squash
Sudbury
budding
organisms
puppet
Sikh
Sharpton
Hackett
reassuring
Paisley
downright
Brewster
offside
slices
fabrication
shelling
pounder
Chrome
premiership
Hitchcock
Contador
Percent
neurological
Hester
morally
doorstep
likened
packets
Amex
activation
secretaries
Mir
disparity
Santander
PepsiCo
Rings
exiting
referenced
disgrace
triggers
entice
rust
punishable
acclaim
roast
Subaru
decorative
fatty
endanger
Colony
Gale
Jew
flowed
Ginobili
Honors
Winn
Doris
5K
Alain
AR
radius
enclosed
involuntary
Afterward
Debate
praises
tallest
disgusting
Automation
intimidate
deposition
Alec
shrank
conceding
resuming
lesbians
Raton
believer
Betsy
Returns
replies
brutality
Carlyle
timeframe
humorous
plugged
Colon
Glee
bt
nonstop
lifeline
Immediately
OEMs
excerpts
cruiser
classmate
Richter
Mali
roaring
pervasive
Ahmedabad
Portage
Trends
reservoirs
Prayer
offspring
turbulence
Innovative
strangled
Restaurants
careless
Herrera
Disclosure
vegetarian
Carling
Dealer
USF
validate
Mahoney
Talbot
insect
ignite
innovator
Dorsey
unmarked
auditions
assailants
FARC
allotment
mankind
#-#:##
progresses
rails
dislike
monoxide
Anytime
smuggled
Cuts
delightful
Oswalt
statistic
limelight
Accra
muscular
barge
unnoticed
pristine
vibe
sincerely
infrared
sigh
Stratford
Telekom
eradicate
homelessness
Smoking
Rodeo
finalizing
Killer
Egg
Packer
Different
Conroy
greats
Somehow
floral
Mustafa
Avoid
Winslow
humiliating
vodka
pals
salads
articulate
schooling
Mirage
Latham
Syndrome
Couples
schoolchildren
Lowry
Pascal
Pittman
combatants
marina
transplants
CIS
Newswires
noteworthy
kidnappings
ABS
Globes
Appleton
unanticipated
unresolved
sucked
breaker
dissenting
Wants
juror
Charged
spice
percentages
Surveillance
Vasquez
Natasha
pillars
Taft
dreaming
Oriental
squarely
Safeway
retailing
Recycling
Chopra
freezer
disguise
shakes
Southland
Akbar
unharmed
Mathews
tumultuous
standstill
secretive
Mackenzie
TWO
Evelyn
Vicente
racetrack
Wiggins
ACE
regeneration
Jankovic
stamped
Bourne
Shepard
downloadable
decorating
bald
stimulating
Shock
Vt.
se
compiling
anthrax
Saving
granite
abrupt
disproportionate
quarantine
Dies
streamed
Villarreal
selectmen
BMI
Penske
curtail
Investigations
Matters
Mongolia
boon
Mancini
Cave
Mindanao
bursting
blends
Damian
NIS
relaxation
Rondo
dusty
shale
RIA
quits
gigs
Delaney
slams
yardage
differential
vets
compromising
Segment
automate
stints
outpost
violin
Labrador
Boro
Kuwaiti
tenor
KPMG
Rebel
Fewer
greener
pitted
Logic
floodwaters
woo
fetus
securely
Bain
respite
sizeable
violently
passwords
CONTENT
Reprints
Sebelius
Raza
coral
Ortega
facilitated
Jamestown
Released
MN
Jr
unborn
Whilst
cafes
polo
Thierry
Depp
Providing
##c
McCall
Alamo
inefficient
CSC
Fixed
Actors
Rocks
Britt
spikes
ACS
collisions
Wesleyan
specialize
Odyssey
paradise
strewn
Sevilla
Carmelo
Biology
biking
equitable
Gagne
expectancy
Madeleine
sporadic
championed
novelist
fuss
solitary
Jefferies
validated
implants
FIRST
token
compilation
outlawed
veins
Demons
Hanks
avoids
fibers
downfall
Likud
accountants
FZ
furnishings
captivity
Montenegro
libel
Alyssa
Parry
BAE
Birthday
Hadley
reliant
computerized
IMS
Mauer
Miners
conceal
heavyweights
clerks
Amarillo
1m
consulate
mayhem
McCabe
Cochran
Grassley
PayPal
allergic
MSCI
remorse
projecting
blazing
Donaldson
cocktails
SMEs
liking
booted
Copeland
Temperatures
Tribal
Provides
forgery
Goods
soliciting
Nestle
risked
quipped
Universities
airliner
multilateral
Stella
recoveries
blond
Bethany
forgiven
expulsion
bustling
orphans
springs
obsolete
Playhouse
podcast
Sol
entrepreneurship
staunch
redesign
Waco
megapixel
exacerbated
deficiency
Rite
unsolicited
Sexual
Cycling
bitterly
Package
maximizing
Download
conducive
fascinated
unfounded
tan
Dianne
ultrasound
forehead
indictments
###K
doctoral
lamps
ED
Currie
Constellation
seaside
Harrah
Mozart
deceptive
bitten
Youngstown
Horne
Accenture
NORTH
autobiography
ranchers
stripes
Sadler
espionage
abdomen
apologies
kinda
Dry
separates
McDaniel
ominous
rabbit
Cingular
SAT
atmospheric
Juneau
JT
ODI
marches
spiraling
autograph
Journalism
OMX
Lois
shortfalls
desktops
Caps
MARTIN
GMC
Cascade
STEVE
Barkley
McGill
Hendrix
Titanic
pencil
Assemblyman
defensemen
fortified
Gorman
Sellers
Nawaz
thanking
Gabrielle
CONSOLIDATED
Wheels
Prakash
Polo
Guyana
supervisory
culprits
Bert
Cancun
mixes
legality
touting
comrades
McNamee
Cebu
Zoning
repertoire
meditation
Dye
icing
delinquent
UI
contesting
Michelin
takeoff
mpg
calendars
centimeters
cultivation
binge
Julien
Das
complying
clerical
troupe
Showtime
homegrown
rewrite
Pound
Mariano
reinforces
Ferrell
documentaries
surfers
Peck
allergy
moderates
colonel
Ancelotti
EV
Saakashvili
Sixteen
Nano
lunchtime
vow
dispersed
synonymous
boos
compatriot
distract
Contra
flank
curbing
subsidize
exodus
Mullins
pioneers
Serious
taping
Zionist
checkered
Meadow
Wipro
UNHCR
sprain
Alfonso
KUALA
reviving
Allstate
limb
Sponsored
scooped
goats
BBB
Trojan
Hwy
Cure
Charley
preacher
KANSAS
embroiled
Gwinnett
rained
choke
Ft
curbs
Adventures
visions
greedy
gigantic
shaved
Nasser
allegiance
plated
denominated
expiring
exchanging
V8
sprinter
bind
complexes
listens
payouts
Justine
Europa
intra
blocker
Directorate
Ugandan
Pebble
blessings
dysfunction
jealous
showroom
Buckingham
actresses
fountain
constrained
rigging
Lighting
Ryanair
pressuring
Desktop
Bachchan
Cowan
friendships
WAC
dismay
Bringing
Vonn
Yacht
Injury
Westport
Compton
cum
Claudia
apex
CS
Reconciliation
Registry
Bangor
stave
Ogilvy
idol
speculators
angrily
inbox
Papua
Tang
Steinberg
Galway
MK
intern
USNewswire
RMB
defer
inspires
Tomlin
Proctor
Landon
Regents
CALGARY
intricate
Harman
PORTLAND
Nittany
Newell
measurable
Duck
Graphics
PeopleSoft
conveniently
Wolfpack
ensued
citrus
Dollars
Sunny
ho
annexation
surrendering
takers
Darius
detached
Dusty
Fayette
Eco
Wearing
levied
retro
Hamm
Pricing
Lufthansa
Caucasus
Belleville
Aniston
receptor
programmed
Khamenei
Diesel
questionnaire
Seal
Membership
Tool
braking
Heartland
consequently
Waxman
Jericho
thinner
Geelong
Emerald
dreadful
bondholders
Maradona
agendas
Fahrenheit
brightly
Kidman
Forecasters
Hahn
Proposed
humbled
massively
Wish
Shoppers
screams
envision
Blount
mammals
Deals
councilman
Goddard
desserts
grape
renewing
hubs
triangle
syndicate
neatly
pest
telescope
colder
pens
Arch
Honestly
meager
Feature
Barbie
auditing
appreciative
Straw
lawful
Gains
Oncology
Keenan
EMEA
backups
Peel
Talladega
Ship
Scene
brochure
Chandra
attire
Mama
ISU
Status
feeder
Deng
Exercise
Responsibility
Bismarck
hemisphere
Sandoval
spoil
SpA
risking
cricketers
McIntosh
Carver
fetched
Surf
Hobart
Sting
feathers
splits
incorrectly
withhold
systematically
lapses
Norwalk
Ballmer
nut
folding
leaping
defying
Hartman
Buyers
Hub
Benghazi
Eminem
antibody
Emap
expresses
PMI
discovers
influencing
clientele
Griffiths
2B
Acer
blizzard
Licensing
tile
upheaval
Lock
ceramic
leaned
stepfather
McAllister
Bale
huddle
Na
Batista
Vettel
Muller
Siegel
Adviser
adrenaline
courtyard
preaching
tar
Seeking
gods
Trainer
Meat
defy
Draper
Washburn
phoned
Funk
Ages
fingerprint
felonies
commandos
Hooper
marvelous
Granger
spontaneous
burgers
configurations
Juniper
Rican
Kiss
Crimes
eclipse
hydraulic
countdown
posture
Craigslist
Ashok
Quantum
Kiffin
flared
Swann
Salon
Guidelines
heartfelt
peppers
Placement
frontline
lunar
Guangzhou
condone
tug
sirens
NIH
Approval
burdens
verbally
eldest
Digest
XL
Numerous
Device
retrieved
Craven
spectator
ICICI
heap
profoundly
Beatty
flung
retires
panicked
Taste
styling
deteriorate
cyclical
fabricated
landmarks
caffeine
Bundesliga
holistic
Fabregas
LUMPUR
wealthiest
mural
Possible
cues
Parties
Dynamic
Du
accumulate
lewd
cabinets
vowing
hates
lobster
glaring
dips
videotaped
Monsanto
bean
Newsom
exhibiting
Rolex
Brom
contagious
hacked
Accident
Zion
Cutting
regretted
EL
mushrooms
landfall
Mosque
Plate
Faulkner
collaborations
postponement
copyrighted
scratching
Pueblo
firmer
Deadline
commissioning
DRC
Athlete
Darby
pillar
RE
intensely
dissatisfaction
underestimated
Tue
Portal
Whereas
Khalifa
stg
frank
worshipers
reimburse
soften
Nationally
superhero
Blumenthal
Stockholders
shovel
AI
geothermal
Jharkhand
Tressel
Gabe
3pm
Mousavi
Problems
Affordable
Apprentice
Transaction
raucous
DN.Y.
schizophrenia
Swede
kitchens
Ferris
Veronica
NIT
ATI
Conn
foreclosed
AirTran
Yousuf
Greatest
Fullerton
MATT
loophole
inventor
Rockwell
masterpiece
dismantled
pier
candid
gunshots
clinging
buzzing
flattened
Biggest
statutes
Algerian
Monument
Changing
Riding
Trees
tasted
disparate
pertinent
stroll
faltering
scanned
novelty
Hussey
Symbian
Beattie
lettuce
Tuscaloosa
hardline
gruesome
draining
CN
Abreu
meats
reimbursed
racket
Dwyer
dysfunctional
paparazzi
phony
Deb
Kahne
underscore
Millar
Older
configured
casket
Shores
boiled
downstairs
Cedric
Ferrer
BOB
Songs
VFW
Orion
sickened
ruptured
worrisome
Controller
ROCK
lax
DT
scars
drinkers
Godfrey
Saharan
Friendly
JB
Vickers
Feel
Westpac
Turnbull
sermon
wallets
poignant
horrendous
Taco
Nickel
Hidden
monkeys
artificially
invalid
Thing
envy
marrying
impartial
walkers
Crest
behaved
Chaudhry
nephews
Raising
Pauline
prematurely
picket
Toro
delta
Burress
condominiums
Zoe
durability
backstroke
tub
spit
refurbished
bragging
Ashcroft
Sense
rainbow
debilitating
Cops
tolerant
incapable
assemblies
troublesome
Cablevision
stripping
Illustrated
Oshkosh
Fiona
Architects
trickle
fairs
Shahid
Coverage
commanded
enzyme
Laser
ng
Millionaire
scent
tweet
Felton
Fleury
respecting
hooker
Volleyball
Tank
Lives
addict
Jess
eviction
spanned
Meetings
Ballroom
Ag
dissolve
Annette
Clients
Phyllis
Certificate
militiamen
Continues
RICHMOND
Franz
Showcase
Rescuers
fragments
incompetent
STATE
distraught
medically
Alejandro
shoved
Guangdong
enormously
Midnight
dictated
cathedral
downplayed
Equality
Effect
nears
Anders
Strange
styled
breeds
Bautista
PORT
CINCINNATI
grappling
Brookings
maneuvers
standalone
bloom
dependency
rounding
murky
shines
Silvio
relocating
allocations
Colt
Mighty
Mothers
ConocoPhillips
trespassing
imposition
Jasmine
wed
Creighton
Shuttle
transcripts
Thousand
Peruvian
academically
Seminole
ambushed
Ithaca
Forsyth
excelled
Chestnut
cooperated
O'Hara
Saudis
banging
Thome
Creating
civilized
Faisal
clipped
Amman
ACL
Choose
Backup
Salle
Berkman
Blizzard
PETA
whaling
irregular
Dem
Bowyer
rejoin
Concern
gentlemen
GIS
Twice
Bench
Marcia
previews
Highlanders
velocity
Lac
handlers
Expansion
diminishing
homicides
discus
shameful
digest
notwithstanding
foresee
Circus
Carly
fatality
wasteful
4pm
Confederate
Hurst
paradigm
swirling
ISI
stripe
Boozer
Sven
newsletters
LaSalle
Mooney
Joplin
waging
Slow
culminating
Assurance
landslides
Jump
converts
strategists
Bonner
Franks
NTSB
diners
Poly
attic
hydro
starved
Banco
Pixar
Cubans
Kiev
dim
Rees
Skilling
Recap
Cottage
genetics
dampen
Otto
Corona
underestimate
monies
Cyclones
Cowboy
Iain
Hawkeyes
Governing
Dole
pricey
Cast
medics
Passion
Combs
Yukon
reforming
astounding
BRIAN
Plano
Luxury
Cashman
nanotechnology
Problem
JOHNSON
Negotiations
ok
froze
Inspection
faint
Definitely
carve
theoretical
vests
enthusiast
advent
classy
###nd
Escobar
hostilities
Shaikh
towed
DAN
SMU
Tavern
polio
Lands
narrowing
MADISON
nabbed
Eid
loosely
floats
huddled
prosecutions
defective
mare
linger
balloting
sclerosis
Compass
hanged
Merit
Beaufort
Escape
Teens
Jodi
Bridgewater
Raytheon
Percy
Curran
Biffle
Laos
timers
slowest
adrift
Exhibit
Cheyenne
tangled
diligently
Guess
Voices
THEY
assay
Wildcat
Wharton
Homeowners
Wizard
Romano
handcuffs
Cream
Currency
spicy
elk
Derry
Mara
Sheraton
elevate
hardships
Sylvester
axis
Damage
laureate
Elm
Multimedia
cherished
dynasty
bolt
guaranteeing
skaters
superstars
Haq
supervise
Cano
vanilla
Nurse
Flags
premiered
lad
hotly
Launched
Einstein
Tamils
STEPHEN
Hoya
O'Keefe
synagogue
worthless
grips
adapting
Gwen
adolescent
Carole
Rosemary
Seventy
Headley
Gregoire
necessities
pastors
Madness
Budapest
McGowan
Assuming
macroeconomic
spilling
RA
estates
O'Neil
segregation
cleaners
gag
dotted
openers
Hollow
aquatic
Oral
reinstate
accomplice
Pvt
stewards
mathematical
extinguished
Developing
Worse
survives
echoes
Chin
shopper
Greenfield
dished
duct
WVU
exiled
Ouattara
Casper
Concerned
Toms
Ramsay
Honeywell
variant
skier
fireplace
detecting
Ramallah
spyware
oversized
presses
Fever
siding
DeKalb
McManus
absorbing
wax
reluctantly
Churches
Dougherty
belted
telecommunication
geopolitical
asserts
Reps.
Delhomme
portraying
Atletico
WTA
residing
Plummer
Politicians
Sharing
Lashkar
encompassing
Minute
RBA
Bet
Oasis
stoked
Uranium
jewel
Unilever
Returning
diagnose
Springer
Gras
Hickory
intrigued
leverages
scripted
Nurses
plantation
le
Accused
Lorraine
Peres
plutonium
CST
GPA
jitters
Murkowski
manifesto
approximate
Fears
Dept.
Willingham
inferior
unstoppable
Successful
omissions
Lung
Lal
preferential
Stringer
Comfort
stuffing
polluted
CTO
Veterinary
URLs
Pollock
Transformers
Hemisphere
Path
birthplace
Gmail
HW
Umar
ire
Caitlin
McMurray
burner
Optimum
2pm
Amortization
#:#
uptick
Mecca
invading
visitation
Andretti
racketeering
valves
Cypriot
Doncaster
Supporting
Cambodian
spies
outrebounded
Provide
kiosks
Provision
Apps
resale
Cote
reminders
nostalgia
hollow
Devine
Haitians
hypocrisy
warplanes
WFP
bracelet
Weiner
turtle
stockpile
kissed
rockers
Shawnee
Lucknow
Bison
Kuznetsova
scant
Closer
prioritize
Instant
forearm
ABOUT
beginnings
legged
Jiang
requisite
slider
rife
busting
Needs
interruption
Crisp
docked
Athletes
ORLANDO
Reverend
disclaimer
Lamont
plentiful
interpretations
surrounds
WHITE
Slim
Outreach
climax
Regions
#:##.###
JK
insanity
cramped
#x#
Hummer
vehicular
fumes
incarcerated
confuse
comedies
Browning
RAF
portrays
Mafia
reassured
Basque
sharper
corrective
Schering
Bernama
whichever
understandably
acquires
pretrial
Kylie
Grimes
stumps
foiled
Osaka
AstraZeneca
boasting
Pitino
addictive
Heading
knots
revitalize
formations
DP
unleash
MILWAUKEE
underwriters
skeleton
Burn
Moussaoui
Polar
WB
acids
referrals
parades
Oden
slamming
antibiotic
duly
cinematic
Joanna
Sainsbury
witch
Inner
harming
distorted
Dong
Imus
Huddersfield
Maps
SU
Archie
hereby
Smyth
Daisy
heater
Hubble
reprieve
MADRID
D-Mass.
Investing
vaccinations
UCF
BPO
Heck
Atmospheric
HDMI
rooftop
Lenny
Caracas
administering
Wear
staffs
Wagoner
Piedmont
TEHRAN
ISP
ul
heartland
Citrix
Hakim
Wei
Winters
McNeil
Broadcom
cerebral
firewall
cadets
tweeted
thesis
fertile
sues
Deere
playful
skirts
untrue
disagrees
photovoltaic
Humanitarian
Det
clinicians
Squadron
Fein
Boards
treacherous
MEDIA
Hedge
hoop
Publisher
hovered
hugs
Angry
Seriously
tidal
Ponzi
Pavel
bounty
Wainwright
Burial
Designer
Tbilisi
Mohd
Akhtar
climbers
Mystery
evolutionary
dolphins
firepower
endangerment
Vineyard
Introduces
Sena
Fay
Bordeaux
ETA
browsers
Watt
swelled
faiths
Nicholls
fanfare
attained
eluded
reuse
Governance
Brits
saddle
Siena
Rent
definitions
Contrary
Virtualization
neutrality
mattress
Sustainability
sequential
AV
Cycle
engages
trousers
pathways
engagements
Begins
creepy
Montgomerie
onshore
pies
cons
Cantor
tacked
Lite
Colgate
boiling
carving
Aung
clicks
smells
ribbons
payback
sacrificing
philanthropic
Simms
hunted
Autumn
Pats
Peugeot
hesitation
Goss
chatter
Wolfowitz
gems
obstructing
Dobson
LEED
clocks
cores
Collin
Adler
Honey
peril
Contractors
Fourteen
statues
deposed
yr
equip
coincides
introductions
ISS
universally
weathered
Aubrey
trilogy
Folk
ve
Manu
unlicensed
Wilder
Banker
lime
trackback
breaching
Mauresmo
Chappell
Kick
overflow
assertions
Plastic
anomaly
fiancee
cylinders
revitalization
clicked
Cairns
Famous
equalized
portals
IMAX
Fairgrounds
concedes
HUD
Herring
destabilize
electing
Xstrata
Kai
optimum
unheard
recruiter
riches
Wolfgang
Charities
Chechen
paragraphs
dpa
Casa
typing
forecasted
newsday.com
goodies
WI
Kenyon
sorrow
Trials
omitted
Troop
BEN
drafts
ALBANY
Railways
sins
flied
orphanage
Helton
Candidate
chairmen
Antigua
Mardi
WWII
racking
lowers
dreaded
vascular
Vieira
appalled
Kind
gulf
Yi
handmade
DES
Passenger
bushes
Exporting
therapeutics
Serbs
Calipari
Moammar
McClain
Frey
bulb
Ramesh
Newly
prescribing
degradation
pesticide
LEE
vent
Maddux
Symposium
Integrity
attrition
crammed
drains
outplayed
ATMs
RESULTS
submarines
Assault
lawns
disrespect
refueling
streamlining
E##
metallic
pops
Langer
Willy
myths
Greeley
introductory
Episode
biomedical
Injured
Lott
tarnished
smelled
smacked
internship
booze
M##
Alive
healed
depended
BAY
chores
Contreras
Distinguished
precarious
unthinkable
Martinsville
Rana
funerals
clogged
wrath
skeptics
rioting
expedite
Omega
apt
Disneyland
pantry
Documents
ACORN
CBA
felon
Jeb
colonies
Relatives
swipe
nighttime
cutter
disguised
lends
Yasser
Reservoir
parishioners
socialism
paused
bamboo
Directed
Domino
Existing
redistricting
Conservancy
residual
knack
Spence
vehemently
offsetting
recurrence
+#.##
Joins
Spelling
Egan
Duval
Rankin
arenas
uniformed
armies
HILL
betrayal
deadlocked
Aden
loopholes
tendencies
lateral
bodyguards
euro###
tomb
Rasheed
nagging
Ivanovic
patiently
Rai
hardened
Mead
nieces
Bliss
maple
ironically
Illegal
halves
Motorcycle
coconut
pharmacists
garment
handguns
extradited
Motorists
corpses
Singleton
Mariah
agitation
Shahzad
glue
Species
hooks
Hendricks
faux
lowly
needless
Mans
WAS
ticketing
perpetual
snatch
Aldridge
Schaefer
shuttered
entourage
Repeat
ploy
nurture
wandered
Tenet
sufferers
Zhou
Mathieu
assuring
Flip
SMITH
preventable
tenders
Goran
Equal
sturdy
victimized
Klaus
Announce
altar
scrutinized
rousing
dove
Khaled
Radcliffe
Abhisit
Harriet
Marcel
hyped
practitioner
template
Melrose
childcare
Receive
yearlong
Wash
reproduced
Shaq
communism
eyewitness
Cheng
Oceanic
corpse
Hanley
familiarity
paychecks
Bulldog
Gaines
painfully
sightings
commits
wheeled
opium
pony
factored
inched
energies
ignores
GEORGE
Kathmandu
romp
purchasers
Nunez
fruition
STATEMENTS
Alexei
Leads
NHRA
resigns
Barrie
Wooden
shuffle
Tunisian
DEF
interacting
Boom
cialis
estimating
Push
enlarged
hallmark
Sharpe
Morningstar
Shoaib
Qualifying
Rowling
natives
MTN
Pulse
Pilgrim
##.##m
Posts
Marietta
enclave
bursts
regulates
Spc
fiasco
Trip
predator
collaborators
Dunne
Ozzie
Rs.##
Coyle
Benny
unaffected
Verde
rotate
indulge
yogurt
Recording
Marxist
Cummins
rammed
Emory
sweater
DEP
onlookers
MHz
Faced
scrapping
Fortis
9am
heralded
INCOME
Calcutta
exert
suitcase
Villiers
baton
overlap
magistrates
Broader
Pocket
Buena
Speakers
maid
Silverman
Till
hastily
cruises
refresh
relinquish
replays
accelerator
Reduction
Continue
Winehouse
Bent
impunity
Harrell
toxins
mats
outpouring
Eastman
TE
fertilizers
markedly
Guns
disgraced
crust
ITC
Hindus
Sizemore
summons
namesake
Wheeling
aloud
wiping
touchscreen
saddled
pulmonary
sinks
plethora
Leaving
BMC
Peer
missionary
noises
pensioners
PHOTO
unscathed
Rafa
NRC
descendants
crafting
snag
Signal
toddlers
polish
rebuffed
poisoned
breaststroke
passions
taxis
chop
Beebe
Worst
McGuinty
boxers
crowns
Premiere
Morneau
brilliance
gram
Monarchs
#-###
Edmund
confidently
pointless
Pattinson
Addison
racks
bladder
Whitehead
Troopers
Couple
Mao
Majesty
companions
reckons
ratify
Bremen
Liga
Luiz
Subway
camaraderie
Lincecum
Precious
etiquette
compromises
Hamels
matured
Shriver
exploratory
Bloc
Jin
Lavrov
Animation
N###
Compare
Alternatively
hello
cashed
snowy
nicotine
CIT
Guidance
Nicola
tragedies
Oswego
Culpepper
DAY
Era
Lutz
Citadel
goose
Foreman
Potomac
AIR
workings
furnace
Steps
resounding
Burnham
JAMES
Dora
swallowed
twisting
unconditional
punts
pedigree
domains
Sites
Waiting
Closed
immoral
homebuyers
NYPD
Helms
Warrant
Expos
Rare
Harbhajan
protester
Koreas
canine
flooring
metabolic
daddy
Convertible
flipping
wafer
Riviera
Davydenko
Sung
Meghan
complements
forcibly
yell
Gael
capitals
pornographic
mourn
ya
broadest
hectare
Expectations
RTT
hooded
skater
proclamation
swath
Hazel
tributes
Manipur
Dons
railways
Burbank
Bridgestone
rehearsals
Wheaton
Skin
Regulators
O'Hare
FFO
grazing
outperformed
Attention
affirming
Cent
MacArthur
exhaustion
envisions
KOs
Dual
Bridget
TOP
Que
Speculation
usher
Oxley
Silent
Volt
slightest
sir
Computers
Noting
infrastructures
Mackey
Injuries
turkeys
Judging
Swisher
preferring
pancreatic
hack
Increasing
Wilkerson
entrusted
erode
headphones
setter
Willard
emphatic
Smoltz
stat
annuity
fiance
McClaren
bashing
##kg
solidly
SPL
Ninety
E3
Mint
Fairview
viewpoint
Otis
Role
foothold
futile
begged
Arcade
Mackay
Eureka
Mentor
ISPs
adventurous
investigates
McGwire
Dominguez
Eighty
Georges
firefighting
Corridor
Mean
outweigh
KO
Headlines
kin
MacBook
resorted
sheds
Pa
Jain
Traditionally
fascination
Rahim
wicked
Mehsud
Courtesy
Manatee
pregnancies
penchant
Sophia
unjust
Shrek
Farley
hateful
conspired
facilitates
subpoenas
Presidency
mortem
implanted
coasts
roadblocks
fleets
habitats
Singletary
robin
maize
Fifa
bleachers
Grange
Pit
Feds
Administrators
Signature
customizable
dependable
critique
Icelandic
Staal
Rocco
assembling
discouraging
Cougar
Eating
peso
Item
Kimball
fragmented
PR.com
barometer
Cass
9pm
Brandt
importers
Blade
Shire
slaughtered
Foul
Suleiman
Blum
Davey
alpha
Nickelodeon
DirecTV
Barrington
rave
bullied
TEAM
ceilings
Huge
Himalayan
BALTIMORE
skyrocketing
Measures
tutoring
Saskatoon
winery
tigers
differs
receptive
shave
Buckeye
premieres
Yo
Plame
livelihoods
poise
handwritten
SBI
autos
sushi
carrots
journeys
Pocono
Statesman
dislocated
separatists
Congolese
flashy
molesting
Expected
overcrowding
Packaging
biodiversity
Purcell
FDI
Selectmen
sinister
Notebook
Selection
Kasey
Hoyer
handover
Sexton
Brick
itinerary
Rosenthal
errant
Inverness
Bafana
dashboard
inequality
tractors
compressed
Lackey
bipolar
grouping
invoked
marketable
glitch
Alta
Database
expo
Anthem
Kensington
frequencies
installments
THERE
bending
treaties
Federated
Fu
peanuts
#####-####
Publishers
Legislation
Bees
UNESCO
Stable
payers
Sanderson
sofa
Beverage
MTA
Garros
Hickey
fluorescent
Roses
SPORTS
Judaism
Holidays
Englishman
flagrant
Livni
disgust
Regulations
frigid
Watertown
Coulter
###rd
raining
giveaway
staples
Dodger
Yvonne
McKee
parlor
mineralized
liberalization
Baku
fishery
retroactive
MRSA
receivables
Robb
entrances
persisted
Feingold
Degree
lagged
Kenyans
Personalized
plausible
platoon
Picks
Usher
Pages
boaters
Sid
UCI
Kitty
rituals
TMZ
flanked
Heller
ovarian
injecting
Delegates
Comics
chant
###,###.##
Expands
abolish
waitress
unforeseen
Laird
HB
docks
complicate
KFC
Suarez
crater
initiating
Nexus
Crosse
coding
WHEN
Luca
metaphor
Ports
podcasts
snowstorm
Musa
SALT
Carolinas
Shearer
flocked
ONTARIO
Mansion
JENNIFER
DreamWorks
Butcher
Murtha
Fruit
JACKSON
passages
Ext
Oldham
kilogram
unreliable
Rockland
ticks
warships
Dementieva
Lemon
Raven
Chertoff
hiked
Med
revolves
dusk
underdogs
Chloe
Equities
Tsunami
unilaterally
Spartan
Merger
incompetence
certify
recorders
stardom
RSVP
Asians
Vega
bandwagon
wonderfully
experimenting
bravery
hips
abound
reinforcing
damp
NAIA
Presented
Beau
BET
grossly
Tobin
noses
Camry
Speak
chewing
suspense
Avaya
oncoming
Betancourt
vigilance
Bergeron
Featured
presenters
biologists
cannon
Loretta
grit
Maddox
BILL
Tiller
combustion
Efficiency
irrespective
looted
collapses
Abkhazia
monarch
specialties
Glavine
Juliet
Haywood
Approved
Negro
bilingual
stationary
cellphones
PSC
Payments
Andover
Worker
BLM
enactment
Troubled
swamped
Wasps
eccentric
Joshi
fodder
Maxim
Faces
disconnected
monsters
Autodesk
PDA
escapes
Jung
angels
Coburn
congregations
disco
shuts
Stillwater
cleansing
Scholars
plow
proficient
digitally
diapers
Arrest
Presents
Acquire
Shark
Pataki
undercut
Chili
Youkilis
soured
coherent
sewing
implant
symptom
ECHL
furnished
persuading
Santo
Priest
VPN
dived
US###
Vivian
puppies
auxiliary
starving
SIM
x##
Wyo.
Infineon
heartbeat
captors
UV
banked
Interpol
controversies
chatted
verifiable
dots
VC
roam
Dal
Kelvin
Medium
Dante
viewpoints
prosper
Dolly
Connors
Forms
profane
buoyant
Lack
Comptroller
staked
Lazio
placements
Bishops
ONGC
marshals
compartment
ExxonMobil
Leroy
Henri
formulated
Linn
delegations
evade
dearly
McIlroy
Sumatra
archdiocese
US##
learners
Houses
Phantom
beg
SCOTT
Scarlet
Tube
graphical
Charts
eclipsed
accuser
Cheese
Nato
tripped
HPV
Bharatiya
preclinical
gracious
Nights
Singles
verdicts
actionable
BG
overcrowded
Population
precursor
photographic
ROME
Alston
Liabilities
WORLD
programmers
unfit
hillside
Matsuzaka
sorely
marginalized
Safina
Jiabao
cameo
relish
semiconductors
dwell
cranes
embraces
ecosystems
decor
jar
Bronze
puzzles
poked
Antony
Magpies
Bharat
comforting
bittersweet
implication
Mehta
AHN
Monk
Suez
Twain
Missoula
leash
folder
mustard
gripped
Chesterfield
Stalin
cloning
duet
Crossroads
Ichiro
Nippon
chaplain
Claudio
Wilma
wineries
UF
regroup
onwards
Printing
Milosevic
culturally
mined
Falling
Guilty
Samuels
à
Eleanor
cages
headway
APP
Yoga
NDC
Soft
ordination
reconnaissance
arrears
lull
Wheel
echoing
Nagar
constituent
unforgettable
cheerleaders
commonplace
dads
airstrike
creeping
Duran
Irvin
commercialize
Huggins
Essentially
Alma
Scarlett
reliably
exhaustive
Tibetans
winnings
darn
intrusive
surges
coordinates
scar
refine
screwed
Boost
Eritrea
Thurston
stipulated
4Q
Couture
JEFF
bark
accession
Barn
salsa
Bowles
Opinions
Recession
contradictory
Stick
striped
Te
Gentry
Diseases
Reported
FINANCIAL
Woodside
Remove
exec
LHP
####.T
Rosario
Winds
Ghanaian
Trouble
compel
Kaka
Hebron
loaned
Stoops
Leinster
Huntsman
Hopes
smear
beads
redundancy
Pointe
lousy
Chemistry
Turf
strongholds
preach
Overnight
congested
tirelessly
mildly
Qualified
Dunbar
Groves
provocation
adherence
asserting
sophistication
iOS
Peavy
Announced
Adkins
handler
divides
Dyson
competency
radicals
Col
disconnect
ISAF
relays
inhibitor
RT
Wills
Dish
baseless
deepened
unforced
Nashua
prophet
Huffman
Bashar
Attacks
Chauncey
Pitcher
directives
trumpet
substitutes
mailbox
algorithms
Visiting
Piazza
NPP
Homeless
incarceration
Hawthorne
BSP
estrogen
Tyco
rhythms
Trio
cured
Kristina
pharmacist
SharePoint
Dolphin
extravaganza
compile
grooming
Minh
Krzyzewski
fiduciary
demolish
throttle
plateau
revoke
Xinjiang
academia
unearthed
Sanctuary
Dobbs
Random
Friendship
brackets
ventured
informs
humility
Drury
#-##-#
kindly
inhalation
Robins
avenge
whirlwind
Isabel
somber
Precision
musicals
funnel
Victim
Magnolia
Improved
UH
induce
destroys
Cinderella
Antarctica
nurturing
Giovanni
Fact
Sinatra
UAB
DRM
professions
triples
APA
outlaw
anew
shorten
connector
fooled
formulate
Rwandan
prognosis
ESPN.com
necklace
Ignatieff
emptied
torched
Cortez
transgender
hooking
spices
invariably
HHS
Solana
wrangling
agony
Blanchard
temples
Winfield
jolt
BEA
tray
Pau
Cooley
Duo
garages
softened
adorned
yourselves
Legislators
Instrument
complacent
newfound
soak
Allentown
kings
deepwater
Reef
Antarctic
purchaser
Vivendi
Valero
Gretzky
bourse
layered
Izzo
appointees
Rachael
Aussies
intolerance
MATTHEW
deprivation
Gerber
amazingly
1Q
Portable
embarking
Fabian
FALLS
ripple
Pirate
hustle
Castroneves
Wolff
garments
profiled
warship
galaxy
variants
assorted
Aetna
peaking
Nomura
admittedly
Biotechnology
Goal
expansions
sketches
Gunmen
Wilton
Klitschko
mend
localized
messed
Esther
Firestone
GREEN
manure
stacks
unsolved
characterize
villa
librarian
Lam
Jackman
Ste
Kiwis
Huber
Ramadi
slugging
EBIT
ablaze
perch
phishing
VH1
Vero
Kolb
Albanian
Attendees
Articles
gowns
horrified
serviced
shrunk
Turkmenistan
Su
Audubon
Carlsbad
CTV
Walls
Clements
Biotech
blending
Cooking
representations
financier
###GB
abolished
Gunn
pillow
Blanton
Regal
Erika
Significant
DAVE
townships
unnecessarily
Activists
RNA
Aces
kidneys
MAX
herbal
Pence
imbalances
enclosure
Combine
wrenching
Promise
thru
balked
detain
PTA
supremacy
camped
cessation
unsettled
DPP
Probe
Boilermakers
Hopper
restrain
achieves
Toulouse
Dar
choppy
Leinart
Philharmonic
choreography
stunts
leaps
Mode
sagging
Bremer
Madagascar
Erwin
Domain
Amgen
Symonds
Ensemble
karaoke
Imran
dormant
picturesque
Dutchman
Brief
entertainers
complexities
manners
hindered
Paolo
leapt
Marley
Communion
MEXICO
Hamad
Optical
tyranny
er
DEA
conquer
José
Armando
Souza
condom
Jenson
Saad
initiation
payoff
intellectuals
regaining
eagles
Williamsburg
stumble
Odds
Landmark
DVR
NSA
catalogs
caste
reunite
autistic
Conor
hacker
amends
Midwestern
Cyclone
elective
predicament
parallels
enriching
polymer
havens
brewery
impromptu
aftermarket
Pompey
-###
reckon
offend
loosen
usable
augment
edgy
sic
biofuel
leveling
Gator
donned
affinity
empathy
Reference
Tanya
Epic
Giggs
whipping
Waugh
absorption
2D
sponsorships
stare
butterflies
Gage
constable
devise
triumphant
remuneration
Document
progressively
recourse
Scheduled
hugging
###mm
trait
Regency
sprung
Braden
restructured
hikers
#/#/####
ponder
documenting
breakthroughs
campaigner
Meals
Yukos
bogeyed
hyper
Beast
Harbaugh
bluegrass
particle
swapping
veered
Dove
GAA
feds
decay
Ark
clinically
fundamentalist
noticing
Guru
WWF
participates
Apparel
reef
Boots
rusty
ALS
Expenses
Dai
benched
softening
Puget
Pickens
anchors
Tender
IPC
camouflage
SHOT
HILLS
mainstay
mortars
OVER
Talabani
rabies
facade
vie
sixes
funky
Pasco
CNET
angst
pared
EDS
antiques
Semitic
Lancers
legalize
Citrus
buyouts
Neutral
postwar
kilowatt
Developed
Kampala
Redman
Burmese
He'sa
Attendance
ADHD
Baja
tad
Alam
patronage
Threat
demons
Needless
Melton
Throw
T##
pint
petrochemical
SPRINGS
disarray
Calder
stanza
Biloxi
Qureshi
sighted
quickness
prompts
NVIDIA
###bn
militancy
Elks
inroads
Celebrate
homosexuals
Telegram
Gardenhire
Directory
hospitalization
ghosts
ferocious
polluting
Ehrlich
RW
technologically
acquaintance
returner
gripping
remediation
Zuckerberg
passcode
liar
Brownsville
Message
Genentech
Westlake
vocabulary
mutations
Hatfield
truths
Stem
nemesis
brewer
narrower
landfills
Cena
monuments
listener
Ping
saint
Caspian
bodyguard
Yost
covenants
relentlessly
anguish
contemplate
Walden
diva
Rumors
Valuable
LeBlanc
briefings
APEC
Hosting
Larkin
burglar
inaccuracies
scarf
supervising
Plantation
streaks
Subscribers
legalized
iceberg
hijacking
Commodities
Excellent
guild
molested
fiscally
converter
untreated
Nowak
fry
forbid
reseller
witty
OSHA
RSA
strap
raged
Texan
adulthood
Lars
DWI
faulted
archbishop
MU
Yugoslavia
Worlds
Yar'Adua
cabins
3B
Emperor
Gilles
purportedly
inhibitors
Museveni
limped
Yuan
#.#M
3Q
Mozilla
SmartBrief
unbiased
golfing
NU
specter
purity
noticeably
MotoGP
Councilor
PETER
congressmen
VIDEO
Yuma
reinstatement
Kyrgyz
captaincy
OKs
evidently
timeless
harshly
infested
Medtronic
Doe
inheritance
stared
Motley
Safin
Auxiliary
riskier
Soup
Avalon
dentists
Pritchard
Shaffer
TC
resurgent
Somerville
indispensable
Bollinger
peculiar
sham
suitability
KB
shattering
Controls
abstinence
Alderman
crores
Samaritan
Garmin
dared
stealth
Darnell
##.#bn
wander
Lawton
crest
Hawai'i
Autism
AEST
Albania
Pitts
Sandler
sneakers
Fernandes
Mallory
reinforcements
crusade
curtains
Archdiocese
Sovereign
chipping
Couric
frail
repository
oft
Physics
ushered
Zealanders
Justices
franchisees
Shale
Smithfield
Solis
U.
ISM
dispatchers
Overland
Mathew
Leavitt
MLAs
SNP
Kruger
Amro
pedals
cricketer
rant
Hulk
mimic
graded
comparatively
warheads
router
Poe
headlined
aversion
swapped
Quigley
gratifying
¶
haunting
Tai
Fees
Huffington
bystanders
Marbury
Favorite
Conte
inked
seeding
equaled
Champagne
Unite
badges
Ahern
Coco
Limerick
walkout
nanny
Kiwanis
HC
shields
Mainland
forgetting
menacing
immunization
Bed
Lease
Blast
trenches
www.sedar.com
overpass
Commentary
generously
priceless
proficiency
st
Concordia
Okinawa
Hastert
Napoli
nano
Togo
Vinny
Presentation
bedding
memos
unseen
bloated
Arlen
IRL
Defensively
CAT
Ely
l'
Rajiv
Diamonds
SCO
Utes
Semitism
fairways
dinosaur
Shops
Viewers
Dickerson
McQueen
resembled
winters
Jayson
NS
HQ
Jewell
Seat
exquisite
hammering
deregulation
Suresh
Kills
TLC
cigar
SIP
Subcommittee
Smaller
Alvaro
Albright
therapists
inaction
mulling
Mat
apologizing
Merseyside
Shelly
Swindon
crossroads
Thurman
Seems
Arun
POLICE
chops
Profits
assures
thickness
Dialogue
Pty
notifying
soreness
registers
Saying
TCS
Tatum
unopposed
Houghton
Peppers
Rogge
admirable
enthusiastically
redeemed
Heatley
occupies
Tariq
commemorative
condemns
GHz
A1
Nepali
Khalil
Mandy
flex
downtime
supper
impulse
vitality
hardworking
endorses
Restoration
Pembroke
Briefs
Humboldt
freezes
intoxication
Martins
Serving
PAT
renters
resemblance
Whitehall
canoe
Colchester
soprano
panelists
explorer
####p
underperforming
sweating
densely
Evaluation
reggae
veil
Dunedin
fouling
repeats
wizard
Begin
Ayala
tack
manipulating
Updates
catfish
melanoma
Hollinger
Shrine
fore
Chick
Vs
optimizing
Hawke
startups
confess
implying
McDonough
evicted
juices
Britton
observance
dictates
Hercules
BEST
LITTLE
hijackers
###.#m
unload
headset
Dewey
clown
Correa
sequentially
Merchants
Soderling
Fairmont
Schuster
Rev
bumpy
Bronson
Roughly
PD
Jesuit
scares
caddy
skewed
Buildings
bundles
osteoporosis
weaving
rug
Najib
Taken
terrestrial
scuffle
tireless
Allardyce
glossy
RPI
spoon
Vajpayee
Micah
impatient
reprints
jab
ADP
restroom
Entering
shredded
awfully
Vicky
misunderstood
drawer
Amish
correctional
footballers
JPY
microscope
Shankar
Snider
inbound
Altman
Examples
slotted
axed
Machines
Dunham
Consultant
mysteries
motivational
decorate
unrealized
repayments
Occupational
rowing
MF
Operators
Bray
Champaign
forex
ascertain
Waltrip
Peacock
Woolworths
Colton
adapter
predictive
aspirin
OAKLAND
superiority
Acres
escrow
Billie
Coker
Mona
Rises
displeasure
Farah
Strength
heroine
RL
chairmanship
Lange
stalling
expletive
insignificant
Sunil
Cmdr
mishap
Competitive
Listing
ballgame
JUMPER
maze
Hunger
Jubilee
Taxi
¥
missionaries
skates
Huskers
Seventeen
Wonderland
unethical
Exactly
Longtime
stormy
berths
Surprise
Tunnel
gasp
inciting
Abercrombie
AFTER
curves
canyon
Covenant
girlfriends
hindsight
Banda
Kang
LinkedIn
intensifying
Thinking
nodes
jokingly
towing
disgusted
goalless
Luton
Blanc
hotter
hitless
Patrice
mobilization
Racine
Bakery
Stirling
Potts
rosters
Tait
Hearst
Winthrop
Ceremony
Sing
uh
undeveloped
sacking
feminist
Banerjee
forceful
Refuge
unmet
frivolous
symphony
rezoning
Vilsack
centrist
HOME
Napoleon
mistress
spewing
Treasurys
Chaney
Includes
Lacy
##B
primitive
Trader
preferably
fluke
+###
Greeks
USAID
Raider
sentimental
simulate
compost
suppressed
Cosby
putter
Beltre
Ellington
irrational
Lyndon
warmly
Platt
humiliated
Kendra
boxed
fists
Wrong
Petro
reputable
Killing
innovate
perished
Fenton
Devlin
Losses
unloaded
Cr
Position
Sponsor
enlist
stretcher
emeritus
surveying
Caesar
rabbits
satire
Drink
dinosaurs
Models
fuzzy
characterization
heaters
Observatory
Inspired
Dillard
bolted
ornaments
Destiny
dropout
refiners
discrepancy
Wedge
workplaces
Garth
customization
Burr
SMB
Become
seeming
Salim
depict
HAS
Isaiah
DJs
ft.
venerable
sen
Seinfeld
Nadia
Guilford
Won
scathing
Madhya
Macomb
clutching
continual
filmmaking
rehabilitate
intercourse
Simpsons
Byrnes
brainer
Shasta
advancements
McCullough
Witt
CI
Maricopa
Institutions
gamblers
intrigue
wanna
imposes
Swim
indifferent
Yakima
reclaimed
Ling
Rs.###
###k
pep
charisma
Columnist
Tales
CAIRO
Demon
Warrants
democracies
Pickering
purses
defuse
derogatory
sludge
fortunately
predatory
bikini
Boyer
Societe
composers
cordoned
concurrent
catchy
café
lymphoma
deceive
#.##bn
Feinberg
underserved
flanker
telephones
Plane
Alfredo
undermines
Merry
competitively
Fuentes
descend
trivia
Ribbon
categorized
Helps
proponent
Greenland
cultivated
Eighteen
Mirren
DSP
Lynx
Kashmiri
Sumner
empowers
methodologies
Sheryl
inducing
complainant
Luc
displacement
negatives
Ng
Geo
Missile
ordained
unravel
Molecular
dissatisfied
illustration
commend
lockdown
iii
sediment
Riggs
focussed
Agenda
hearty
Setting
provisioning
Bochy
Repair
retrospective
Macs
gathers
Simone
Jeffery
detractors
thunder
Picasso
cashing
encompass
Automatic
Pie
wreath
parachute
Endowment
existent
Norma
bikers
crept
Offices
bylaw
fluent
Tran
Oakley
Visitor
Endangered
IG
Expressway
bickering
Amelia
policyholders
restive
Bertrand
Alastair
Hunters
Bender
theology
rosy
Ludwig
Odinga
Barroso
BellSouth
Min
oysters
pretext
choreographer
virtues
indebtedness
resignations
Quinnipiac
Dickens
Piano
Somewhere
rollover
exposes
Villanueva
anomalies
weaponry
Solidarity
detour
Revenge
Wilderness
BRITISH
stalwart
Ridley
juncture
Disc
migrating
Hollis
Stout
barricades
comedic
ATHENS
Mandarin
Kaczynski
#,##,###
RNC
clauses
scooter
Providers
Afridi
mirrored
Yanukovych
bowel
keyboards
Cleary
Cement
EIA
geographically
therein
Genetics
thrift
Enrique
squeezing
Juniors
Lending
warden
Roberson
Bosch
Chivas
Martyn
Miers
Indigenous
bestowed
Homecoming
organizes
2Q
OUR
woven
grease
ALAN
opportunistic
realism
marines
Brewing
Conversely
CAA
hypothetical
MMS
sobriety
forcefully
Hossa
tenths
Dooley
Graphic
Sin
Conduct
motivating
shelved
INFORMATION
SME
drones
veiled
Rolen
Zimbabweans
KEVIN
flyer
Mississauga
annoyance
darling
Birch
paralysis
Goosen
appoints
flyers
NATIONS
willingly
Scalia
Niles
Firms
silently
Glacier
selects
repetitive
Elisabeth
reputed
pickups
stent
Lakeside
Messages
sweets
resonance
##k
pottery
wherein
misplaced
lawless
coatings
GET
Serve
Challenges
faxed
Citibank
biographies
kph
MCC
ANTONIO
Palermo
behaving
Swing
LARRY
Gardiner
Edith
sociology
Natal
wholesalers
outpaced
Rhonda
Werth
NEWSWIRE
AAP
HBOS
breakdowns
Idea
Ira
ANN
Commodore
Kwame
Blades
chalk
Waterfront
rapes
topical
comedians
torso
discriminate
PSU
Material
homepage
criticizes
PET
Pinellas
Loren
McCourt
exposures
Witherspoon
McGovern
Azerbaijani
Yonhap
creditor
Aventis
archaeological
Ronaldinho
Downer
Strachan
ludicrous
creep
Gruden
fated
lurking
painkillers
tidy
Stephane
curtailed
discredit
Rhys
disparities
nifty
Militants
distrust
CPS
Advocacy
wept
Dash
heroics
Painter
Strasburg
fruitful
bounces
Meier
CMA
Shootout
revelers
pyramid
Severe
complacency
pennies
kickbacks
Satan
blindness
Airports
puzzled
Ambani
Fordham
tarmac
cellar
grammar
cartilage
Vogue
Orient
Budweiser
bushels
flagging
Durango
thrashing
infantry
Stricker
Plainfield
zombie
Rell
Lowery
Kimmel
thankfully
Hosted
Rawalpindi
Spread
manhunt
fragrance
Proposal
liquefied
Contacts
poke
heterosexual
pontiff
rescues
Allianz
deficient
hinges
drenched
Lacrosse
burying
starvation
CHARLES
appease
Correction
remembrance
Ella
Daughter
Loughner
frost
malnutrition
Liberian
divulge
FFA
Mohan
Marlborough
Biological
swayed
squared
embezzlement
TVA
paramedic
Nora
aboriginal
postage
cameraman
Heard
Raphael
Meadowlands
peg
brochures
reelection
Aruba
tails
nostalgic
arrow
nationalities
Shine
Ore
trending
rabbi
recounts
unfolds
Lockhart
Karbala
commonwealth
reshuffle
mundane
Woodbury
THOMAS
outscoring
Advice
Reebok
GREG
landline
drugmaker
Pedroia
powering
spacewalk
coordinators
poets
modem
transmissions
shouts
CSR
Macdonald
geese
Counter
arcade
traumatized
Sal
edible
eroding
paranoid
Id
indifference
philanthropy
emailed
Bledsoe
FTA
vengeance
horrors
sprinted
Calvert
Gannon
Ensign
Tamara
quilt
Chorus
Recognition
layups
Dickey
Stations
Californian
confines
dwellers
imperial
Steiner
Robyn
ADX
ARC
Sunnyvale
Cassel
Khadr
realignment
Driscoll
Split
shrubs
midsize
Franchise
tweaked
caters
reiterate
spins
derive
Bard
RSI
ol
rightful
strung
hotspots
payer
Kenney
choreographed
solidify
farce
JSE
Transocean
outsource
lien
proactively
caption
Muqtada
Skyline
OSCE
resembling
Comes
Panda
Knapp
conception
Daschle
Haji
sweetheart
enrolling
singular
blunder
juggling
Nos.
Stoxx
Walgreens
circled
Springboks
Innovations
prix
Alou
Bulger
Nordstrom
spotting
majorities
boiler
McFarland
Horner
concussions
Bingham
squares
Gives
optioned
McLeish
Croft
sixty
hunts
journalistic
agile
bookmark
MV
Baath
leaflets
Raise
Scholar
Fontana
persistence
AGM
Airtel
nationalism
thirteen
authoritative
Dorado
infused
clandestine
Tropicana
Discount
fraught
thumping
Summits
imaginative
Langford
revert
vertically
jumbo
Solicitor
Younis
Growers
Bread
stamina
stimulation
convicts
that'sa
centrally
enticing
vacate
Bangladeshi
cultivate
insightful
Tesla
enraged
Afterwards
salvation
unleaded
Warm
inflict
auctioneer
feminine
netbook
Robby
Trailer
prank
Cologne
hurling
Rafah
Roots
extinct
punctuated
jogging
Miner
pounced
playbook
JM
quieter
perched
Grounds
Photography
ref
Nathaniel
booklet
inflatable
recreate
Scientist
Yudhoyono
Burrows
watered
contrasts
stifle
nascent
comprehend
multicultural
pivot
Sheboygan
notoriety
subordinated
hopping
Haines
renaissance
McCollum
malfunction
Domingo
ATA
plugging
rivalries
Wozniacki
substitution
mastered
extremes
reasoned
downgrades
#/#/##
Asean
Elijah
biometric
Marx
posh
ramping
Lap
bolstering
Zimmer
distinctly
Restructuring
notions
faked
Osbourne
Mohawk
chord
Paralympic
Hate
Complaints
solemn
Mai
quasi
SPRINGFIELD
Brentwood
facets
decisively
Lidge
nightmares
threes
Buster
mic
Outsourcing
Yuvraj
FAO
Lofton
Lesbian
Ideally
Briscoe
delinquency
societal
caravan
RR
Uzbek
cuff
instrumentation
hapless
rpg
Scioscia
Muir
Edmond
Freeway
Varitek
denomination
bartender
Ferrero
Winona
Sotheby
Majors
entails
CIBC
completions
AMP
reefs
aftershocks
Needham
Glenwood
denounce
Newmarket
NPD
souvenir
Math
Supt
dictionary
caregiver
Massive
munitions
Perino
feisty
FOUL
Switch
MPC
Thabo
Nvidia
bothering
tread
gardeners
Size
ailment
churn
advertiser
Osman
colorectal
unsold
interrogations
parted
comma
Josef
nutrient
deflect
Manson
rundown
Travolta
Hendry
poisonous
Vintage
bolts
claw
Hairston
Buehrle
encrypted
juicy
nesting
ASP
hitch
Lenders
famine
MY
Chávez
halved
halfback
curled
Longview
sunrise
upholding
analogy
Promotions
Dunlap
GPs
pacing
anxiously
hardwood
BU
flier
faceoff
roundabout
Alexandre
CAPE
mocked
Trace
Kucinich
Surface
GRAND
Ancient
Preserve
churning
Traverse
inconclusive
Pen
rooftops
politely
Fergie
compositions
Ombudsman
backcourt
Redlands
declarations
cardinal
grievance
Brody
metabolism
Chow
bathing
powerless
cheaply
cm
Collective
importer
Hansbrough
blazes
nasal
Markus
Responsible
BANGKOK
Waltham
disturbances
networked
adept
donut
runways
sucks
TIPS
swamp
Cumbria
Nugent
Hut
heinous
hopped
ons
strangely
Seminar
gelding
Muskegon
punters
Meets
hatch
Framingham
Arrowhead
Naperville
Der
Snoop
Pranab
Sur
residue
Donahue
passers
rushes
stud
SPX
Anatomy
HOPE
Hai
widest
Kawasaki
nudity
Pros
Zune
DIY
prescribe
Plough
welding
mustache
dissolution
flamboyant
realistically
Paint
Created
Districts
premarket
calming
screenwriter
IE
afternoons
boardroom
Martina
Raju
Ibanez
neurons
bookstores
GROUP
Kilgore
aspire
Cline
Marlboro
cheerleader
dummy
Tahrir
Aquarium
Adidas
GW
JOHANNESBURG
chopper
Ideas
perseverance
Saul
#:##-#
Drummond
Extended
Nana
pasture
1pm
shareholding
Dani
Solo
disproportionately
accommodating
bookmarking
conceptual
PricewaterhouseCoopers
undisputed
syndication
Petit
Comets
Reconstruction
treason
BBQ
Inquiry
SSL
unattended
bananas
Tikrit
mint
IRIN
IMPACT
Tuck
pastoral
hydroelectric
Surprisingly
uninterrupted
dunks
Adoption
complemented
cashier
CMC
casually
Might
Nev
Watergate
Barrick
siren
disapproval
■
melee
Danbury
Torrey
bitterness
bonded
Sino
motorcade
observes
Boot
Pawar
Vacation
Sarbanes
formulas
SEDAR
Stony
Mandelson
cheerful
dehydration
Parma
Entrepreneur
licensees
Beethoven
achievable
Rogue
moose
sheltered
DMK
boycotted
DPS
Alford
brazen
solace
Runners
Laredo
esque
unsuspecting
scarred
slums
Maldives
GSK
misspelling
filtered
exclusivity
stifling
undetermined
Agnes
Defoe
TT
carp
coded
unavoidable
triumphs
Abel
Abortion
Arc
Advancement
WBA
decency
Samson
Wolverine
bogged
Phi
Hideki
Birth
maneuvering
omission
intangibles
Diary
sincerity
HIGH
Kaye
Alaskan
implements
Redd
Utica
Caron
fridge
Pensions
LaHood
segregated
erred
besieged
tweak
Portis
Henley
Napier
Secrets
Cartwright
restarted
Lastly
writ
keenly
Victorino
Thad
ART
inspecting
intervening
embankment
forgo
heyday
PRO
##,#
Odessa
Leopard
Liquor
2G
Hickman
accents
Westin
mutation
Outer
correspondents
Unique
septic
regrettable
Frogs
Alton
lace
wheeler
spaghetti
seam
reformed
trench
psychologists
DOUG
commemorating
prolong
melody
comScore
Bradenton
Advertiser
DUBLIN
regionals
Konerko
Entergy
Seafood
Mishra
assailant
ostensibly
surpluses
Otago
invoices
unruly
Lose
egregious
turnkey
torrential
Den
chilled
hallways
awoke
smoker
That'sa
limp
Cowher
flops
Bow
Mich
Tamiflu
Rajapaksa
berries
Weapons
ultimatum
pleasantly
gravy
Rental
Sorensen
Trucks
tanning
ONLY
Lund
Bones
franc
quantify
hopeless
Coe
Subs
nodded
renovating
shunned
Hizbullah
Sinha
prairie
rotten
smuggle
noodles
Cheap
originating
Kovalchuk
Appoints
tearful
Associations
Grammys
midseason
Merced
Kearns
leakage
tagging
retribution
memberships
patrolled
frog
Charlottesville
Dawkins
Nikolai
thrived
pennant
furlongs
Hoyas
persists
Risks
Alhaji
Bassett
NCP
percussion
Nagin
Foxx
Tijuana
nutritious
perpetrated
splendid
overflowing
dismisses
cutoff
McClure
Diyala
projector
Lugo
goaltending
Univision
hobbled
dredging
Terps
ascent
CHARLESTON
Arcadia
Stroke
execs
Balkans
##:##.#
harrowing
lb
Flex
Ordinary
Kari
Tight
shrapnel
salaried
glut
LTD
rarity
agitated
CPM
Carmichael
seniority
Manley
uploaded
envisaged
Grow
devotees
Gulfport
Bullish
deem
cookbook
Boyce
unprotected
Folks
Statehouse
Sponsors
dispel
Gillian
Phuket
Rifle
unsettling
superiors
tracker
envelopes
Walcott
Visitation
faltered
Abigail
Motherwell
mitigating
resonate
Barb
ridge
Heating
Novosti
Bucharest
ammonia
parody
commuting
biscuits
Aguilar
democratically
Schalke
hatched
levies
Mirza
Brevard
lorry
devoid
quadruple
Cuyahoga
Yanks
nil
Refugees
Literacy
Cessna
Chalmers
RP
plummeting
fort
Intellectual
ADB
luring
vandals
senseless
Shiv
carrot
SL
simmering
Regent
HDFC
broadening
cinemas
Wanda
CASH
Estes
psyche
wicketkeeper
Inventories
#.#million
Sergey
Aguilera
Tonga
DeWitt
splashed
Trout
Momentum
Wendell
cadres
programmable
Blank
cling
Livermore
pics
animosity
Berbatov
Naked
Tiny
interrogated
Stress
Powered
Skelton
skins
NSE
anemia
exempted
giveaways
complains
melamine
visuals
Compact
Yong
Defendant
consensual
humbling
SUCH
Myung
Nutt
ANNE
cohesive
upbringing
Kimi
flotilla
ERIC
Northland
Ashraf
Navajo
dryer
nautical
intending
rubbing
crackers
decliners
Reinvestment
Bubba
substituted
Cir
haircut
melodies
wacky
postgame
Hammers
Moves
cartridges
upswing
Fix
scarves
Ari
essentials
averted
Generals
Bury
Peach
Brush
calves
Lundqvist
differentiated
dormitory
Manchin
Sykes
insecure
thyroid
Dining
Dent
Burning
Forensic
valuing
Disabilities
understatement
Sopranos
murderers
emirate
transitions
Toews
Clancy
McDaniels
Childhood
Ariz
preventative
Zhao
Dunkin
Moussa
CGI
Trimble
pitfalls
Thor
spasms
abandonment
Jeffs
SI
Imports
statehood
glaciers
Root
gladly
bisexual
Drum
Subscription
diner
Lawsuit
golds
Supplies
stereotype
ante
Koran
RED
Protective
CAPS
Chiang
conferred
dye
lasers
fox
sanitary
ARLINGTON
fiddle
Div
spinoff
Alps
crawling
###/###-####
plume
Brokers
Clausen
Lydia
Issa
pitting
kiosk
Messaging
fugitives
annex
Ch
Rodrigo
VOD
Ennis
slapping
Milner
Kardashian
restraints
aquarium
hogs
Oxfam
toxicology
RPG
overboard
gastrointestinal
celebratory
eatery
Mitsui
leaped
NCR
Punk
Ballack
smack
Generale
Superdome
trough
MOINES
unannounced
outward
Chairwoman
Crimestoppers
moist
leftover
Euros
colossal
bedside
spinners
Belize
IRNA
ginger
decks
murderous
membrane
onsite
bra
tallies
Prado
mantle
imaginary
vitro
envoys
UFJ
Tufts
custodian
psychologically
------------------------
silenced
Davison
softly
warlords
Mears
Ranking
hull
Alessandro
discrepancies
Hirsch
Kieran
Knesset
Isles
motorized
donuts
elegance
meddling
Bjorn
Participation
Crabtree
Transition
UTEP
Starwood
tedious
checkout
Reservation
pests
dishonest
navigating
elated
Advisers
Oppenheimer
miracles
Ally
orbiting
beacon
perfume
Maddon
Schaeffer
Maltese
Westmoreland
Martz
Loeb
contraception
Ackerman
Misrata
Wharf
bombarded
Pediatrics
Increases
millionaires
Obesity
clutter
amending
Potash
Affleck
chats
Rizzo
Forge
Marshals
inquire
redirected
Grain
Lehmann
relayed
Dressed
valleys
Seagate
Lesley
flap
plucked
occupant
dragon
promo
Cruises
undated
netbooks
Nix
PowerPoint
trump
Copies
Ginger
erroneous
elites
GSA
plains
petitioner
Nearby
Chances
appropriation
cemented
tiered
illustrious
contaminants
rot
commencing
gridlock
rescuing
Malloy
salvaged
Mauritius
Gourmet
eradication
NATIONAL
bullion
majoring
retrial
Jewelry
morgue
shady
wireline
undo
exhausting
Hunting
Pipe
savior
Dynamo
reeled
Clemente
Buddha
Acquires
Seed
Hardenne
Xcel
poppy
Goose
Zapatero
putted
Younger
hypothesis
Genzyme
Drawing
Hargrove
Antoni
cheerleading
Tierney
Everywhere
Shinawatra
unchecked
Rabbit
soaking
Callaway
Anelka
Chong
ecology
Ordonez
Argus
detriment
carmakers
Keene
sucking
baffled
BAC
Telangana
cumbersome
spitting
fondly
pharma
Bozeman
conservatism
Valentino
Listed
unsigned
Divine
fullest
Cristina
Ugly
bps
roofing
futuristic
subscribed
trusting
concentrates
Parnell
CID
Pugh
Penguin
recharge
shepherd
Dowd
alumnus
Terre
KXNet.com
simplest
CNA
Hallmark
Coffey
CL
Tin
Tourist
templates
firings
flea
Hagerstown
[...]
